#include "magic_wand_model_data.h"

// We need to keep the data array aligned on some architectures.
#ifdef __has_attribute
#define HAVE_ATTRIBUTE(x) __has_attribute(x)
#else
#define HAVE_ATTRIBUTE(x) 0
#endif
#if HAVE_ATTRIBUTE(aligned) || (defined(__GNUC__) && !defined(__clang__))
#define DATA_ALIGN_ATTRIBUTE __attribute__((aligned(4)))
#else
#define DATA_ALIGN_ATTRIBUTE
#endif

const unsigned char g_magic_wand_model_data[] DATA_ALIGN_ATTRIBUTE = {
  0x1c, 0x00, 0x00, 0x00, 0x54, 0x46, 0x4c, 0x33, 0x14, 0x00, 0x20, 0x00,
  0x04, 0x00, 0x08, 0x00, 0x0c, 0x00, 0x10, 0x00, 0x14, 0x00, 0x00, 0x00,
  0x18, 0x00, 0x1c, 0x00, 0x14, 0x00, 0x00, 0x00, 0x03, 0x00, 0x00, 0x00,
  0x18, 0x00, 0x00, 0x00, 0x2c, 0x00, 0x00, 0x00, 0xd8, 0x00, 0x00, 0x00,
  0x2c, 0x00, 0x00, 0x00, 0x80, 0x00, 0x00, 0x00, 0x78, 0x00, 0x00, 0x00,
  0x05, 0x00, 0x00, 0x00, 0x28, 0x07, 0x00, 0x00, 0x44, 0x06, 0x00, 0x00,
  0xbc, 0x03, 0x00, 0x00, 0xf8, 0x02, 0x00, 0x00, 0xac, 0x01, 0x00, 0x00,
  0x01, 0x00, 0x00, 0x00, 0xd0, 0x00, 0x00, 0x00, 0x14, 0x00, 0x00, 0x00,
  0xdc, 0x32, 0x00, 0x00, 0xd8, 0x32, 0x00, 0x00, 0xd0, 0x31, 0x00, 0x00,
  0x1c, 0x31, 0x00, 0x00, 0x74, 0x30, 0x00, 0x00, 0xfc, 0x2f, 0x00, 0x00,
  0x90, 0x2f, 0x00, 0x00, 0x40, 0x13, 0x00, 0x00, 0xec, 0x11, 0x00, 0x00,
  0x10, 0x10, 0x00, 0x00, 0xb4, 0x07, 0x00, 0x00, 0xb0, 0x32, 0x00, 0x00,
  0xac, 0x32, 0x00, 0x00, 0xa8, 0x32, 0x00, 0x00, 0xa4, 0x32, 0x00, 0x00,
  0xa0, 0x32, 0x00, 0x00, 0x9c, 0x32, 0x00, 0x00, 0x98, 0x32, 0x00, 0x00,
  0x94, 0x32, 0x00, 0x00, 0x3c, 0x00, 0x00, 0x00, 0x00, 0x00, 0x00, 0x00,
  0x01, 0x00, 0x00, 0x00, 0x0c, 0x00, 0x00, 0x00, 0x08, 0x00, 0x0c, 0x00,
  0x04, 0x00, 0x08, 0x00, 0x08, 0x00, 0x00, 0x00, 0x08, 0x00, 0x00, 0x00,
  0x13, 0x00, 0x00, 0x00, 0x13, 0x00, 0x00, 0x00, 0x6d, 0x69, 0x6e, 0x5f,
  0x72, 0x75, 0x6e, 0x74, 0x69, 0x6d, 0x65, 0x5f, 0x76, 0x65, 0x72, 0x73,
  0x69, 0x6f, 0x6e, 0x00, 0xb6, 0xce, 0xff, 0xff, 0x04, 0x00, 0x00, 0x00,
  0x10, 0x00, 0x00, 0x00, 0x31, 0x2e, 0x35, 0x2e, 0x30, 0x00, 0x00, 0x00,
  0x00, 0x00, 0x00, 0x00, 0x00, 0x00, 0x00, 0x00, 0x0f, 0x00, 0x00, 0x00,
  0x4d, 0x4c, 0x49, 0x52, 0x20, 0x43, 0x6f, 0x6e, 0x76, 0x65, 0x72, 0x74,
  0x65, 0x64, 0x2e, 0x00, 0x00, 0x00, 0x0e, 0x00, 0x18, 0x00, 0x04, 0x00,
  0x08, 0x00, 0x0c, 0x00, 0x10, 0x00, 0x14, 0x00, 0x0e, 0x00, 0x00, 0x00,
  0x14, 0x00, 0x00, 0x00, 0x5c, 0x00, 0x00, 0x00, 0x60, 0x00, 0x00, 0x00,
  0x64, 0x00, 0x00, 0x00, 0x84, 0x00, 0x00, 0x00, 0x12, 0x00, 0x00, 0x00,
  0x9c, 0x31, 0x00, 0x00, 0x2c, 0x31, 0x00, 0x00, 0x88, 0x30, 0x00, 0x00,
  0xe0, 0x2f, 0x00, 0x00, 0x38, 0x2f, 0x00, 0x00, 0xd4, 0x2e, 0x00, 0x00,
  0x6c, 0x2e, 0x00, 0x00, 0x18, 0x12, 0x00, 0x00, 0xbc, 0x10, 0x00, 0x00,
  0xe0, 0x0e, 0x00, 0x00, 0x0c, 0x06, 0x00, 0x00, 0x28, 0x05, 0x00, 0x00,
  0xe8, 0x03, 0x00, 0x00, 0x3c, 0x03, 0x00, 0x00, 0x98, 0x02, 0x00, 0x00,
  0xd4, 0x01, 0x00, 0x00, 0x10, 0x01, 0x00, 0x00, 0x84, 0x00, 0x00, 0x00,
  0x01, 0x00, 0x00, 0x00, 0x00, 0x00, 0x00, 0x00, 0x01, 0x00, 0x00, 0x00,
  0x11, 0x00, 0x00, 0x00, 0x08, 0x00, 0x00, 0x00, 0x74, 0x05, 0x00, 0x00,
  0x94, 0x04, 0x00, 0x00, 0x78, 0x03, 0x00, 0x00, 0xbc, 0x02, 0x00, 0x00,
  0x30, 0x02, 0x00, 0x00, 0x50, 0x01, 0x00, 0x00, 0xa8, 0x00, 0x00, 0x00,
  0x10, 0x00, 0x00, 0x00, 0x04, 0x00, 0x00, 0x00, 0x6d, 0x61, 0x69, 0x6e,
  0x00, 0x00, 0x00, 0x00, 0x7a, 0xff, 0xff, 0xff, 0x00, 0x00, 0x00, 0x09,
  0x04, 0x00, 0x00, 0x00, 0x1c, 0x00, 0x00, 0x00, 0x10, 0x00, 0x00, 0x00,
  0x04, 0x00, 0x00, 0x00, 0xb2, 0xcf, 0xff, 0xff, 0x00, 0x00, 0x80, 0x3f,
  0x01, 0x00, 0x00, 0x00, 0x11, 0x00, 0x00, 0x00, 0x01, 0x00, 0x00, 0x00,
  0x10, 0x00, 0x00, 0x00, 0xa0, 0xfa, 0xff, 0xff, 0x19, 0x00, 0x00, 0x00,
  0x00, 0x00, 0x00, 0x19, 0x01, 0x00, 0x00, 0x00, 0x40, 0xcf, 0xff, 0xff,
  0x14, 0x00, 0x00, 0x00, 0x12, 0x00, 0x00, 0x00, 0x18, 0x00, 0x00, 0x00,
  0x30, 0x00, 0x00, 0x00, 0x20, 0x00, 0x00, 0x00, 0x02, 0x00, 0x00, 0x00,
  0x01, 0x00, 0x00, 0x00, 0x04, 0x00, 0x00, 0x00, 0x08, 0x00, 0x00, 0x00,
  0x49, 0x64, 0x65, 0x6e, 0x74, 0x69, 0x74, 0x79, 0x00, 0x00, 0x00, 0x00,
  0x02, 0x00, 0x00, 0x00, 0xff, 0xff, 0xff, 0xff, 0x04, 0x00, 0x00, 0x00,
  0x24, 0xd0, 0xff, 0xff, 0x00, 0x00, 0x0e, 0x00, 0x18, 0x00, 0x08, 0x00,
  0x0c, 0x00, 0x10, 0x00, 0x07, 0x00, 0x14, 0x00, 0x0e, 0x00, 0x00, 0x00,
  0x00, 0x00, 0x00, 0x08, 0x03, 0x00, 0x00, 0x00, 0x18, 0x00, 0x00, 0x00,
  0x0c, 0x00, 0x00, 0x00, 0x04, 0x00, 0x00, 0x00, 0x40, 0xcf, 0xff, 0xff,
  0x01, 0x00, 0x00, 0x00, 0x10, 0x00, 0x00, 0x00, 0x03, 0x00, 0x00, 0x00,
  0x0f, 0x00, 0x00, 0x00, 0x07, 0x00, 0x00, 0x00, 0x04, 0x00, 0x00, 0x00,
  0xc8, 0xcf, 0xff, 0xff, 0x14, 0x00, 0x00, 0x00, 0x11, 0x00, 0x00, 0x00,
  0x18, 0x00, 0x00, 0x00, 0x5c, 0x00, 0x00, 0x00, 0x4c, 0x00, 0x00, 0x00,
  0x02, 0x00, 0x00, 0x00, 0x01, 0x00, 0x00, 0x00, 0x04, 0x00, 0x00, 0x00,
  0x34, 0x00, 0x00, 0x00, 0x73, 0x65, 0x71, 0x75, 0x65, 0x6e, 0x74, 0x69,
  0x61, 0x6c, 0x2f, 0x64, 0x65, 0x6e, 0x73, 0x65, 0x5f, 0x31, 0x2f, 0x4d,
  0x61, 0x74, 0x4d, 0x75, 0x6c, 0x3b, 0x73, 0x65, 0x71, 0x75, 0x65, 0x6e,
  0x74, 0x69, 0x61, 0x6c, 0x2f, 0x64, 0x65, 0x6e, 0x73, 0x65, 0x5f, 0x31,
  0x2f, 0x42, 0x69, 0x61, 0x73, 0x41, 0x64, 0x64, 0x00, 0x00, 0x00, 0x00,
  0x02, 0x00, 0x00, 0x00, 0xff, 0xff, 0xff, 0xff, 0x04, 0x00, 0x00, 0x00,
  0xc8, 0xcf, 0xff, 0xff, 0xda, 0xfc, 0xff, 0xff, 0x00, 0x00, 0x00, 0x08,
  0x03, 0x00, 0x00, 0x00, 0x24, 0x00, 0x00, 0x00, 0x18, 0x00, 0x00, 0x00,
  0x0c, 0x00, 0x00, 0x00, 0x00, 0x00, 0x06, 0x00, 0x08, 0x00, 0x07, 0x00,
  0x06, 0x00, 0x00, 0x00, 0x00, 0x00, 0x00, 0x01, 0x01, 0x00, 0x00, 0x00,
  0x0f, 0x00, 0x00, 0x00, 0x03, 0x00, 0x00, 0x00, 0x0e, 0x00, 0x00, 0x00,
  0x06, 0x00, 0x00, 0x00, 0x03, 0x00, 0x00, 0x00, 0xe8, 0xfb, 0xff, 0xff,
  0x09, 0x00, 0x00, 0x00, 0x00, 0x00, 0x00, 0x09, 0x01, 0x00, 0x00, 0x00,
  0x88, 0xd0, 0xff, 0xff, 0x14, 0x00, 0x00, 0x00, 0x10, 0x00, 0x00, 0x00,
  0x18, 0x00, 0x00, 0x00, 0x6c, 0x00, 0x00, 0x00, 0x5c, 0x00, 0x00, 0x00,
  0x02, 0x00, 0x00, 0x00, 0x01, 0x00, 0x00, 0x00, 0x10, 0x00, 0x00, 0x00,
  0x46, 0x00, 0x00, 0x00, 0x73, 0x65, 0x71, 0x75, 0x65, 0x6e, 0x74, 0x69,
  0x61, 0x6c, 0x2f, 0x64, 0x65, 0x6e, 0x73, 0x65, 0x2f, 0x4d, 0x61, 0x74,
  0x4d, 0x75, 0x6c, 0x3b, 0x73, 0x65, 0x71, 0x75, 0x65, 0x6e, 0x74, 0x69,
  0x61, 0x6c, 0x2f, 0x64, 0x65, 0x6e, 0x73, 0x65, 0x2f, 0x52, 0x65, 0x6c,
  0x75, 0x3b, 0x73, 0x65, 0x71, 0x75, 0x65, 0x6e, 0x74, 0x69, 0x61, 0x6c,
  0x2f, 0x64, 0x65, 0x6e, 0x73, 0x65, 0x2f, 0x42, 0x69, 0x61, 0x73, 0x41,
  0x64, 0x64, 0x00, 0x00, 0x02, 0x00, 0x00, 0x00, 0xff, 0xff, 0xff, 0xff,
  0x10, 0x00, 0x00, 0x00, 0xa8, 0xd1, 0xff, 0xff, 0x00, 0x00, 0x0a, 0x00,
  0x10, 0x00, 0x04, 0x00, 0x08, 0x00, 0x0c, 0x00, 0x0a, 0x00, 0x00, 0x00,
  0x02, 0x00, 0x00, 0x00, 0x10, 0x00, 0x00, 0x00, 0x04, 0x00, 0x00, 0x00,
  0x01, 0x00, 0x00, 0x00, 0x0e, 0x00, 0x00, 0x00, 0x02, 0x00, 0x00, 0x00,
  0x0d, 0x00, 0x00, 0x00, 0x05, 0x00, 0x00, 0x00, 0xa8, 0xfc, 0xff, 0xff,
  0x16, 0x00, 0x00, 0x00, 0x00, 0x00, 0x00, 0x16, 0x01, 0x00, 0x00, 0x00,
  0x48, 0xd1, 0xff, 0xff, 0x14, 0x00, 0x00, 0x00, 0x0f, 0x00, 0x00, 0x00,
  0x18, 0x00, 0x00, 0x00, 0x40, 0x00, 0x00, 0x00, 0x30, 0x00, 0x00, 0x00,
  0x02, 0x00, 0x00, 0x00, 0x01, 0x00, 0x00, 0x00, 0x70, 0x00, 0x00, 0x00,
  0x1a, 0x00, 0x00, 0x00, 0x73, 0x65, 0x71, 0x75, 0x65, 0x6e, 0x74, 0x69,
  0x61, 0x6c, 0x2f, 0x66, 0x6c, 0x61, 0x74, 0x74, 0x65, 0x6e, 0x2f, 0x52,
  0x65, 0x73, 0x68, 0x61, 0x70, 0x65, 0x00, 0x00, 0x02, 0x00, 0x00, 0x00,
  0xff, 0xff, 0xff, 0xff, 0x70, 0x00, 0x00, 0x00, 0x2c, 0xd1, 0xff, 0xff,
  0x3e, 0xfe, 0xff, 0xff, 0x00, 0x00, 0x00, 0x05, 0x01, 0x00, 0x00, 0x00,
  0x38, 0x00, 0x00, 0x00, 0x2c, 0x00, 0x00, 0x00, 0x14, 0x00, 0x00, 0x00,
  0x00, 0x00, 0x0e, 0x00, 0x14, 0x00, 0x00, 0x00, 0x10, 0x00, 0x0c, 0x00,
  0x08, 0x00, 0x04, 0x00, 0x0e, 0x00, 0x00, 0x00, 0x03, 0x00, 0x00, 0x00,
  0x01, 0x00, 0x00, 0x00, 0x03, 0x00, 0x00, 0x00, 0x01, 0x00, 0x00, 0x00,
  0x01, 0x00, 0x00, 0x00, 0x0d, 0x00, 0x00, 0x00, 0x01, 0x00, 0x00, 0x00,
  0x0c, 0x00, 0x00, 0x00, 0xe8, 0xd1, 0xff, 0xff, 0x14, 0x00, 0x00, 0x00,
  0x0e, 0x00, 0x00, 0x00, 0x20, 0x00, 0x00, 0x00, 0x58, 0x00, 0x00, 0x00,
  0x40, 0x00, 0x00, 0x00, 0x04, 0x00, 0x00, 0x00, 0x01, 0x00, 0x00, 0x00,
  0x07, 0x00, 0x00, 0x00, 0x01, 0x00, 0x00, 0x00, 0x10, 0x00, 0x00, 0x00,
  0x22, 0x00, 0x00, 0x00, 0x73, 0x65, 0x71, 0x75, 0x65, 0x6e, 0x74, 0x69,
  0x61, 0x6c, 0x2f, 0x6d, 0x61, 0x78, 0x5f, 0x70, 0x6f, 0x6f, 0x6c, 0x69,
  0x6e, 0x67, 0x32, 0x64, 0x5f, 0x31, 0x2f, 0x4d, 0x61, 0x78, 0x50, 0x6f,
  0x6f, 0x6c, 0x00, 0x00, 0x04, 0x00, 0x00, 0x00, 0xff, 0xff, 0xff, 0xff,
  0x07, 0x00, 0x00, 0x00, 0x01, 0x00, 0x00, 0x00, 0x10, 0x00, 0x00, 0x00,
  0xe4, 0xd1, 0xff, 0xff, 0x1a, 0xfe, 0xff, 0xff, 0x00, 0x00, 0x00, 0x01,
  0x24, 0x00, 0x00, 0x00, 0x18, 0x00, 0x00, 0x00, 0x04, 0x00, 0x00, 0x00,
  0x0c, 0xfe, 0xff, 0xff, 0x01, 0x00, 0x00, 0x00, 0x01, 0x00, 0x00, 0x00,
  0x00, 0x00, 0x00, 0x01, 0x01, 0x00, 0x00, 0x00, 0x0c, 0x00, 0x00, 0x00,
  0x03, 0x00, 0x00, 0x00, 0x0b, 0x00, 0x00, 0x00, 0x09, 0x00, 0x00, 0x00,
  0x02, 0x00, 0x00, 0x00, 0x90, 0xd2, 0xff, 0xff, 0x14, 0x00, 0x00, 0x00,
  0x0d, 0x00, 0x00, 0x00, 0x20, 0x00, 0x00, 0x00, 0xb8, 0x00, 0x00, 0x00,
  0xa0, 0x00, 0x00, 0x00, 0x04, 0x00, 0x00, 0x00, 0x01, 0x00, 0x00, 0x00,
  0x15, 0x00, 0x00, 0x00, 0x01, 0x00, 0x00, 0x00, 0x10, 0x00, 0x00, 0x00,
  0x83, 0x00, 0x00, 0x00, 0x73, 0x65, 0x71, 0x75, 0x65, 0x6e, 0x74, 0x69,
  0x61, 0x6c, 0x2f, 0x63, 0x6f, 0x6e, 0x76, 0x32, 0x64, 0x5f, 0x31, 0x2f,
  0x52, 0x65, 0x6c, 0x75, 0x3b, 0x73, 0x65, 0x71, 0x75, 0x65, 0x6e, 0x74,
  0x69, 0x61, 0x6c, 0x2f, 0x63, 0x6f, 0x6e, 0x76, 0x32, 0x64, 0x5f, 0x31,
  0x2f, 0x42, 0x69, 0x61, 0x73, 0x41, 0x64, 0x64, 0x3b, 0x73, 0x65, 0x71,
  0x75, 0x65, 0x6e, 0x74, 0x69, 0x61, 0x6c, 0x2f, 0x63, 0x6f, 0x6e, 0x76,
  0x32, 0x64, 0x5f, 0x31, 0x2f, 0x43, 0x6f, 0x6e, 0x76, 0x32, 0x44, 0x3b,
  0x73, 0x65, 0x71, 0x75, 0x65, 0x6e, 0x74, 0x69, 0x61, 0x6c, 0x2f, 0x63,
  0x6f, 0x6e, 0x76, 0x32, 0x64, 0x5f, 0x31, 0x2f, 0x42, 0x69, 0x61, 0x73,
  0x41, 0x64, 0x64, 0x2f, 0x52, 0x65, 0x61, 0x64, 0x56, 0x61, 0x72, 0x69,
  0x61, 0x62, 0x6c, 0x65, 0x4f, 0x70, 0x2f, 0x72, 0x65, 0x73, 0x6f, 0x75,
  0x72, 0x63, 0x65, 0x00, 0x04, 0x00, 0x00, 0x00, 0xff, 0xff, 0xff, 0xff,
  0x15, 0x00, 0x00, 0x00, 0x01, 0x00, 0x00, 0x00, 0x10, 0x00, 0x00, 0x00,
  0xfc, 0xd3, 0xff, 0xff, 0x00, 0x00, 0x0e, 0x00, 0x1a, 0x00, 0x08, 0x00,
  0x0c, 0x00, 0x10, 0x00, 0x07, 0x00, 0x14, 0x00, 0x0e, 0x00, 0x00, 0x00,
  0x00, 0x00, 0x00, 0x05, 0x01, 0x00, 0x00, 0x00, 0x3c, 0x00, 0x00, 0x00,
  0x30, 0x00, 0x00, 0x00, 0x14, 0x00, 0x00, 0x00, 0x00, 0x00, 0x0e, 0x00,
  0x18, 0x00, 0x17, 0x00, 0x10, 0x00, 0x0c, 0x00, 0x08, 0x00, 0x04, 0x00,
  0x0e, 0x00, 0x00, 0x00, 0x03, 0x00, 0x00, 0x00, 0x03, 0x00, 0x00, 0x00,
  0x03, 0x00, 0x00, 0x00, 0x03, 0x00, 0x00, 0x00, 0x00, 0x00, 0x00, 0x01,
  0x01, 0x00, 0x00, 0x00, 0x0b, 0x00, 0x00, 0x00, 0x01, 0x00, 0x00, 0x00,
  0x0a, 0x00, 0x00, 0x00, 0x2c, 0xff, 0xff, 0xff, 0x11, 0x00, 0x00, 0x00,
  0x00, 0x00, 0x00, 0x11, 0x01, 0x00, 0x00, 0x00, 0xcc, 0xd3, 0xff, 0xff,
  0x14, 0x00, 0x00, 0x00, 0x0c, 0x00, 0x00, 0x00, 0x20, 0x00, 0x00, 0x00,
  0x58, 0x00, 0x00, 0x00, 0x40, 0x00, 0x00, 0x00, 0x04, 0x00, 0x00, 0x00,
  0x01, 0x00, 0x00, 0x00, 0x15, 0x00, 0x00, 0x00, 0x01, 0x00, 0x00, 0x00,
  0x08, 0x00, 0x00, 0x00, 0x20, 0x00, 0x00, 0x00, 0x73, 0x65, 0x71, 0x75,
  0x65, 0x6e, 0x74, 0x69, 0x61, 0x6c, 0x2f, 0x6d, 0x61, 0x78, 0x5f, 0x70,
  0x6f, 0x6f, 0x6c, 0x69, 0x6e, 0x67, 0x32, 0x64, 0x2f, 0x4d, 0x61, 0x78,
  0x50, 0x6f, 0x6f, 0x6c, 0x00, 0x00, 0x00, 0x00, 0x04, 0x00, 0x00, 0x00,
  0xff, 0xff, 0xff, 0xff, 0x15, 0x00, 0x00, 0x00, 0x01, 0x00, 0x00, 0x00,
  0x08, 0x00, 0x00, 0x00, 0xd8, 0xd4, 0xff, 0xff, 0x00, 0x00, 0x0e, 0x00,
  0x14, 0x00, 0x00, 0x00, 0x08, 0x00, 0x0c, 0x00, 0x07, 0x00, 0x10, 0x00,
  0x0e, 0x00, 0x00, 0x00, 0x00, 0x00, 0x00, 0x01, 0x30, 0x00, 0x00, 0x00,
  0x24, 0x00, 0x00, 0x00, 0x10, 0x00, 0x00, 0x00, 0x0c, 0x00, 0x10, 0x00,
  0x00, 0x00, 0x04, 0x00, 0x08, 0x00, 0x0f, 0x00, 0x0c, 0x00, 0x00, 0x00,
  0x01, 0x00, 0x00, 0x00, 0x01, 0x00, 0x00, 0x00, 0x00, 0x00, 0x00, 0x01,
  0x01, 0x00, 0x00, 0x00, 0x0a, 0x00, 0x00, 0x00, 0x03, 0x00, 0x00, 0x00,
  0x00, 0x00, 0x00, 0x00, 0x08, 0x00, 0x00, 0x00, 0x01, 0x00, 0x00, 0x00,
  0x0c, 0x00, 0x10, 0x00, 0x0b, 0x00, 0x00, 0x00, 0x0c, 0x00, 0x04, 0x00,
  0x0c, 0x00, 0x00, 0x00, 0x03, 0x00, 0x00, 0x00, 0x00, 0x00, 0x00, 0x03,
  0x01, 0x00, 0x00, 0x00, 0xac, 0xd4, 0xff, 0xff, 0x14, 0x00, 0x00, 0x00,
  0x0b, 0x00, 0x00, 0x00, 0x20, 0x00, 0x00, 0x00, 0xb0, 0x00, 0x00, 0x00,
  0x98, 0x00, 0x00, 0x00, 0x04, 0x00, 0x00, 0x00, 0x01, 0x00, 0x00, 0x00,
  0x40, 0x00, 0x00, 0x00, 0x03, 0x00, 0x00, 0x00, 0x08, 0x00, 0x00, 0x00,
  0x7b, 0x00, 0x00, 0x00, 0x73, 0x65, 0x71, 0x75, 0x65, 0x6e, 0x74, 0x69,
  0x61, 0x6c, 0x2f, 0x63, 0x6f, 0x6e, 0x76, 0x32, 0x64, 0x2f, 0x52, 0x65,
  0x6c, 0x75, 0x3b, 0x73, 0x65, 0x71, 0x75, 0x65, 0x6e, 0x74, 0x69, 0x61,
  0x6c, 0x2f, 0x63, 0x6f, 0x6e, 0x76, 0x32, 0x64, 0x2f, 0x42, 0x69, 0x61,
  0x73, 0x41, 0x64, 0x64, 0x3b, 0x73, 0x65, 0x71, 0x75, 0x65, 0x6e, 0x74,
  0x69, 0x61, 0x6c, 0x2f, 0x63, 0x6f, 0x6e, 0x76, 0x32, 0x64, 0x2f, 0x43,
  0x6f, 0x6e, 0x76, 0x32, 0x44, 0x3b, 0x73, 0x65, 0x71, 0x75, 0x65, 0x6e,
  0x74, 0x69, 0x61, 0x6c, 0x2f, 0x63, 0x6f, 0x6e, 0x76, 0x32, 0x64, 0x2f,
  0x42, 0x69, 0x61, 0x73, 0x41, 0x64, 0x64, 0x2f, 0x52, 0x65, 0x61, 0x64,
  0x56, 0x61, 0x72, 0x69, 0x61, 0x62, 0x6c, 0x65, 0x4f, 0x70, 0x2f, 0x72,
  0x65, 0x73, 0x6f, 0x75, 0x72, 0x63, 0x65, 0x00, 0x04, 0x00, 0x00, 0x00,
  0xff, 0xff, 0xff, 0xff, 0x40, 0x00, 0x00, 0x00, 0x03, 0x00, 0x00, 0x00,
  0x08, 0x00, 0x00, 0x00, 0x00, 0xd5, 0xff, 0xff, 0x0a, 0xd6, 0xff, 0xff,
  0x04, 0x00, 0x00, 0x00, 0x00, 0x08, 0x00, 0x00, 0x55, 0x19, 0x53, 0x3e,
  0x34, 0x25, 0x0a, 0xbe, 0xd9, 0x69, 0x2d, 0x3e, 0x1a, 0xe3, 0x37, 0xbd,
  0xa6, 0x37, 0x28, 0x3e, 0xab, 0xe8, 0xf5, 0x3e, 0x62, 0x1a, 0xa5, 0xbc,
  0x8c, 0x76, 0xaa, 0x3e, 0x79, 0xba, 0x72, 0xbd, 0xc2, 0xdf, 0x8b, 0x3d,
  0x57, 0xac, 0xd8, 0xbb, 0xce, 0xdd, 0x72, 0xbe, 0x61, 0xf1, 0x9c, 0x3d,
  0x19, 0xf3, 0x2d, 0xbc, 0x88, 0x9d, 0x17, 0xbf, 0x63, 0x46, 0xf1, 0xbd,
  0x40, 0x52, 0x87, 0x3c, 0x01, 0xc5, 0x33, 0x3d, 0xc5, 0x03, 0xcc, 0xbd,
  0x44, 0x35, 0x23, 0xbe, 0xcc, 0xea, 0xdf, 0xbd, 0x12, 0x36, 0x60, 0xbe,
  0x00, 0x20, 0x2d, 0xbe, 0xdc, 0x30, 0x11, 0xbe, 0xd0, 0x2f, 0x8b, 0x3d,
  0x3c, 0x7c, 0xa0, 0xbd, 0x84, 0x02, 0x45, 0xbe, 0x1f, 0x31, 0x3f, 0xbe,
  0x26, 0x4d, 0x36, 0xbe, 0xb9, 0x5d, 0xac, 0xbe, 0x52, 0xee, 0x80, 0x3d,
  0xee, 0xf4, 0x47, 0xbe, 0xb3, 0x58, 0xaf, 0x3e, 0x28, 0x2c, 0xd8, 0xbd,
  0xdd, 0x70, 0xd7, 0x3c, 0xbd, 0x7f, 0x83, 0xbd, 0x0c, 0x35, 0x8d, 0xbd,
  0x46, 0x7f, 0x0c, 0x3f, 0xd3, 0xce, 0xae, 0x3d, 0xa0, 0x3a, 0x70, 0x3e,
  0x33, 0xec, 0x17, 0xbd, 0xb3, 0x13, 0x4b, 0xbe, 0x25, 0xdc, 0x81, 0xbe,
  0x2d, 0xf6, 0x2a, 0xbf, 0xa5, 0x72, 0x24, 0xbe, 0x93, 0xa5, 0x44, 0xbe,
  0x1e, 0x3b, 0x4a, 0xbe, 0xc6, 0x00, 0x4d, 0xbe, 0x9c, 0x08, 0xb2, 0x3d,
  0xfa, 0x94, 0xef, 0xbd, 0x44, 0xa4, 0x33, 0xbd, 0xf7, 0x32, 0x96, 0xbe,
  0xf4, 0x5d, 0x85, 0xbd, 0x36, 0xbc, 0x4c, 0xbd, 0x5a, 0x47, 0xf6, 0x3d,
  0xe2, 0xe7, 0x21, 0xbe, 0xcf, 0xb7, 0x4d, 0x3d, 0x0a, 0xf8, 0x9b, 0x3c,
  0x37, 0x00, 0x1d, 0xbd, 0x60, 0xc5, 0xd1, 0xbb, 0x81, 0x62, 0x95, 0xbd,
  0x3b, 0x11, 0x05, 0xbe, 0xf7, 0x7c, 0xa9, 0x3b, 0x17, 0x9e, 0x28, 0xbe,
  0xd2, 0x47, 0x06, 0x3f, 0x29, 0xd0, 0xde, 0xbd, 0x1b, 0x3e, 0x38, 0xbe,
  0x5e, 0xf0, 0x90, 0x3d, 0xc8, 0x3d, 0xa7, 0xbd, 0x7e, 0x39, 0x6b, 0xbd,
  0x2c, 0xa6, 0xeb, 0xbd, 0x21, 0xeb, 0x08, 0xbd, 0xf4, 0x45, 0x9a, 0xbb,
  0xee, 0x83, 0xe5, 0x3d, 0x5f, 0xc1, 0xe4, 0xbd, 0x41, 0xff, 0x9a, 0x3d,
  0x2a, 0x3a, 0x9f, 0x3d, 0xa1, 0x64, 0xbe, 0x3b, 0x48, 0x3f, 0xd5, 0xba,
  0x4f, 0x2c, 0x72, 0xbd, 0x79, 0x36, 0x03, 0xbe, 0xff, 0x03, 0xc1, 0x3c,
  0x42, 0xe8, 0xc3, 0x3d, 0x08, 0xab, 0xb5, 0xbd, 0xc4, 0xa8, 0x2b, 0x3d,
  0xae, 0x99, 0xa3, 0xbc, 0xeb, 0x94, 0x1e, 0xbd, 0x95, 0x24, 0xe3, 0xbe,
  0x29, 0xfb, 0x0c, 0xbf, 0x42, 0xc1, 0x37, 0x3c, 0xc3, 0x21, 0xc8, 0xbc,
  0x0a, 0x34, 0xe0, 0xbe, 0x9e, 0x86, 0xdf, 0x3d, 0x5b, 0xf6, 0x82, 0xbe,
  0x1b, 0x1d, 0xdd, 0xbd, 0xe6, 0x18, 0x45, 0xbf, 0xad, 0x64, 0x5f, 0xbe,
  0x48, 0x06, 0x2d, 0x3d, 0x02, 0x5b, 0x41, 0xbe, 0xda, 0xd6, 0x37, 0xbd,
  0x73, 0xb0, 0xd4, 0xbd, 0xac, 0xc3, 0xe7, 0xbd, 0x65, 0x53, 0xc5, 0xbd,
  0x41, 0x34, 0xc0, 0xbd, 0x0d, 0x91, 0x10, 0xbe, 0x71, 0x14, 0x2c, 0xbd,
  0xcf, 0x50, 0x28, 0xbd, 0x02, 0xc5, 0x12, 0xbd, 0xd6, 0xb2, 0xe1, 0xbd,
  0x76, 0x24, 0x51, 0xbd, 0x5d, 0xd6, 0x69, 0x3c, 0xf4, 0xcd, 0x83, 0xbd,
  0xf5, 0x8d, 0x19, 0x3d, 0xd9, 0xfb, 0xf0, 0xbd, 0x97, 0xc0, 0x32, 0x3f,
  0x60, 0x09, 0xef, 0x3d, 0x27, 0x34, 0x89, 0xbd, 0x06, 0xce, 0x3d, 0x3d,
  0xd5, 0x80, 0xe9, 0xbd, 0x15, 0xc2, 0xba, 0xbb, 0xa7, 0x89, 0xe9, 0x3c,
  0x8f, 0x5c, 0xce, 0xbd, 0xda, 0x06, 0x13, 0xbe, 0x4b, 0x73, 0x60, 0x3d,
  0x58, 0x06, 0x8f, 0x3d, 0xda, 0x9a, 0x56, 0x3c, 0x8d, 0xb6, 0x11, 0xbe,
  0x0b, 0x71, 0xe1, 0xbb, 0x94, 0xd7, 0x9d, 0x3e, 0xa2, 0x26, 0xd1, 0xbd,
  0x6f, 0x3c, 0xfa, 0xbd, 0x53, 0x1e, 0x38, 0xbf, 0xee, 0xfa, 0x81, 0xbc,
  0xdf, 0x1a, 0x1c, 0x3e, 0xdb, 0x32, 0x2b, 0xbd, 0xf1, 0x08, 0x07, 0xbf,
  0xac, 0xd1, 0xcb, 0x39, 0x1c, 0xba, 0x31, 0xbd, 0x8c, 0x4e, 0x43, 0x3e,
  0xd6, 0x14, 0xcc, 0xbc, 0x06, 0x98, 0xa1, 0xbd, 0x00, 0x11, 0x79, 0xbe,
  0xe4, 0xe5, 0x2f, 0x3e, 0xf7, 0x5c, 0x3b, 0xbf, 0x17, 0x6c, 0x10, 0xbf,
  0x7f, 0x69, 0x2f, 0x3e, 0xde, 0x1e, 0x16, 0x3e, 0x16, 0xfe, 0x41, 0x3e,
  0xba, 0x4f, 0x01, 0xbe, 0x63, 0x77, 0xb2, 0xbe, 0xa0, 0x41, 0x9b, 0x3b,
  0xe1, 0xa0, 0x0f, 0xbe, 0xad, 0x9e, 0x92, 0xbe, 0xcf, 0x29, 0x5f, 0xbd,
  0x77, 0x5d, 0x37, 0xbe, 0x0a, 0x82, 0xf6, 0x3d, 0x8d, 0x6c, 0x4e, 0xbe,
  0x6c, 0x6c, 0x03, 0xbe, 0xa7, 0xbe, 0xf2, 0xbd, 0xf7, 0x2e, 0xac, 0x3d,
  0xac, 0x7d, 0x51, 0xbe, 0xc7, 0x61, 0x15, 0xbe, 0x2a, 0xdf, 0xd6, 0xbd,
  0xa8, 0x3d, 0x9d, 0xbd, 0xe7, 0xce, 0xb6, 0xbd, 0xb0, 0xb3, 0x77, 0x3c,
  0x45, 0xc3, 0x24, 0xbd, 0x18, 0x13, 0x91, 0xbe, 0x18, 0x3d, 0x10, 0x3e,
  0x00, 0x84, 0x73, 0xbd, 0x55, 0x08, 0x02, 0xbd, 0xf5, 0xfd, 0xd9, 0xbd,
  0x69, 0x57, 0x8d, 0x3d, 0x34, 0x62, 0x49, 0x3d, 0x89, 0xbe, 0xfd, 0x3e,
  0x29, 0x2e, 0x85, 0xbe, 0x41, 0x37, 0x14, 0xbe, 0x2d, 0xf4, 0xe7, 0x3d,
  0x34, 0x9c, 0xfb, 0x3d, 0xf8, 0x2f, 0x47, 0x3e, 0x3a, 0x3c, 0x9c, 0x3d,
  0xff, 0xec, 0xf6, 0xbd, 0x80, 0xd4, 0x0d, 0x3d, 0x60, 0xa1, 0xda, 0xbd,
  0x27, 0x4f, 0x6d, 0x3d, 0x5e, 0x34, 0x5f, 0xbd, 0x9b, 0x39, 0xb5, 0x3d,
  0x8a, 0xda, 0xae, 0xbd, 0x56, 0xdc, 0xac, 0xbd, 0x16, 0x41, 0xf8, 0xbd,
  0xb2, 0xb2, 0x0e, 0xbe, 0x25, 0x4d, 0xe2, 0xbd, 0x0b, 0x2d, 0x83, 0xbd,
  0xf4, 0x64, 0x64, 0xbe, 0x77, 0x59, 0xbe, 0x3c, 0x6c, 0x1d, 0xcd, 0xbd,
  0xdf, 0x89, 0x66, 0xbe, 0x7d, 0x75, 0xb9, 0x3d, 0x32, 0x2f, 0x5a, 0x3d,
  0x67, 0x7c, 0xb0, 0xbd, 0xb7, 0x62, 0xa3, 0x3d, 0x72, 0x41, 0xca, 0xbe,
  0xf7, 0xee, 0xb5, 0xbe, 0x5a, 0x58, 0x55, 0xbe, 0x87, 0x47, 0x36, 0xbc,
  0x94, 0x4f, 0x99, 0xbe, 0x1a, 0x6e, 0x01, 0x3e, 0x57, 0xaf, 0xe5, 0x3d,
  0x25, 0xa3, 0x9b, 0xbe, 0x0e, 0xaa, 0x13, 0xbd, 0x76, 0x68, 0x5c, 0xbe,
  0xa2, 0x94, 0x89, 0xbe, 0x01, 0x95, 0x4c, 0xbe, 0x99, 0x90, 0x77, 0xbe,
  0xed, 0x89, 0xa0, 0xbe, 0xb1, 0x6b, 0x08, 0x3e, 0x01, 0xcc, 0xd3, 0x3c,
  0x5d, 0x12, 0x65, 0x3c, 0x7a, 0xd9, 0xfb, 0xbd, 0xaf, 0xb2, 0x98, 0xbe,
  0x78, 0xf8, 0x99, 0x3d, 0xd3, 0x72, 0x06, 0xbe, 0xae, 0x63, 0xa2, 0xbd,
  0xaf, 0x93, 0x8c, 0xbd, 0x21, 0x24, 0x6b, 0xbe, 0x02, 0x47, 0xb8, 0xbc,
  0x8c, 0x55, 0xc4, 0xbd, 0x1b, 0x7e, 0x2d, 0xbe, 0x5d, 0x68, 0x27, 0xbc,
  0x6b, 0x77, 0xd3, 0x3d, 0x54, 0x4f, 0xac, 0xbd, 0xc0, 0x91, 0xc6, 0xbd,
  0xb6, 0xe8, 0x93, 0xbd, 0xb3, 0xb8, 0x9a, 0xbd, 0x26, 0x5a, 0x0e, 0x3e,
  0xf8, 0x52, 0x98, 0x3e, 0xd2, 0x18, 0x81, 0xbd, 0x15, 0x90, 0x07, 0xbd,
  0x68, 0xaa, 0x3a, 0xbd, 0x5e, 0x29, 0x00, 0x3a, 0x56, 0x35, 0xf8, 0x3d,
  0x54, 0xab, 0x6b, 0xbd, 0x33, 0x68, 0xf7, 0xbc, 0x81, 0xcb, 0x11, 0xbe,
  0x73, 0xe6, 0xe3, 0xbc, 0x8b, 0x87, 0x3d, 0xbd, 0xd2, 0x94, 0x90, 0x3d,
  0x9a, 0x8f, 0x90, 0x3d, 0x0d, 0x9d, 0xe2, 0x3d, 0x32, 0xf7, 0x8f, 0xbd,
  0xd4, 0x03, 0x57, 0x3e, 0xad, 0xbd, 0x86, 0xbc, 0x58, 0xe6, 0x08, 0x3e,
  0xab, 0xac, 0x00, 0xbd, 0x56, 0x04, 0x99, 0x3d, 0xbd, 0x08, 0x8e, 0xbc,
  0xc8, 0x2f, 0xb7, 0xbe, 0x0e, 0x96, 0x44, 0x3d, 0x20, 0x04, 0x1d, 0xbf,
  0x6a, 0x1a, 0x74, 0xbe, 0x95, 0x53, 0x33, 0xbe, 0x1d, 0x9e, 0x4d, 0xbe,
  0x9d, 0x4b, 0x2d, 0xbe, 0x35, 0x2c, 0xbd, 0xbe, 0x8f, 0xc2, 0x73, 0x3e,
  0xf9, 0x85, 0x1e, 0xbe, 0x99, 0xfd, 0x76, 0xbd, 0x09, 0x17, 0x0f, 0xbf,
  0x67, 0xca, 0x81, 0xbd, 0xd6, 0xab, 0x02, 0x3f, 0x2e, 0xc7, 0x9e, 0xbd,
  0x29, 0xe1, 0xb8, 0xbe, 0xc3, 0x61, 0x15, 0x3e, 0x45, 0x77, 0x6e, 0x3d,
  0xa0, 0x6b, 0x5d, 0xbb, 0x43, 0x6f, 0xa9, 0x3e, 0xec, 0x51, 0xc4, 0xbc,
  0xed, 0x2c, 0x25, 0xbe, 0x31, 0x09, 0x75, 0x3d, 0xa7, 0x68, 0xcd, 0xbe,
  0x7c, 0x8f, 0xb0, 0xbe, 0x16, 0xef, 0xea, 0x3c, 0x43, 0x83, 0x95, 0x3d,
  0x37, 0xed, 0xb8, 0x3d, 0xd1, 0xa1, 0x5b, 0xbd, 0x1d, 0xe9, 0x7f, 0xbe,
  0x50, 0xea, 0x43, 0x3d, 0x74, 0xba, 0xce, 0xbb, 0x24, 0x6b, 0x0d, 0xbe,
  0x06, 0x9e, 0x1b, 0xbd, 0x4e, 0xc4, 0x73, 0xbe, 0xfe, 0xb2, 0xb9, 0xbb,
  0x0e, 0x87, 0x43, 0xbe, 0x3f, 0xef, 0x8b, 0xbd, 0xe0, 0xd6, 0xb1, 0xbd,
  0x6c, 0x7f, 0x88, 0xbe, 0x63, 0xdd, 0xdf, 0x3d, 0x5d, 0xd6, 0xe0, 0xbd,
  0x63, 0xb9, 0x8a, 0xbe, 0xc0, 0xbf, 0x95, 0xbe, 0xc8, 0x65, 0x05, 0xbe,
  0xa6, 0xec, 0x4f, 0xbc, 0x08, 0xc8, 0x11, 0xbe, 0x3e, 0x25, 0x9d, 0xbd,
  0x65, 0x63, 0xdc, 0x3d, 0xf9, 0x8a, 0xb4, 0xbd, 0x8d, 0xc2, 0x93, 0x3d,
  0x46, 0xb0, 0x2d, 0xbe, 0xa3, 0x8c, 0x0c, 0x3e, 0x06, 0xd7, 0x87, 0x3d,
  0x9a, 0x57, 0x42, 0x3e, 0xbb, 0xf6, 0xf9, 0xbd, 0x8d, 0xf9, 0x1e, 0x3d,
  0x8c, 0x10, 0x41, 0xbd, 0x75, 0x9b, 0x62, 0x3e, 0xe2, 0xce, 0x1a, 0x3d,
  0xf4, 0x78, 0xb2, 0x3d, 0x1e, 0x7e, 0x1b, 0xbe, 0x6b, 0xa3, 0xb4, 0xbd,
  0x31, 0x3c, 0xff, 0xbd, 0x7c, 0x75, 0x68, 0x3e, 0xea, 0x45, 0x24, 0xbd,
  0x63, 0xbe, 0xbd, 0x3d, 0x6b, 0x21, 0x4e, 0x3e, 0xb0, 0xb9, 0x01, 0xbf,
  0x27, 0xf1, 0x3b, 0x3e, 0xfc, 0xb6, 0xff, 0x3d, 0xdf, 0x47, 0xe4, 0x3d,
  0x3e, 0xce, 0xf8, 0x3b, 0xdc, 0x75, 0xb7, 0xbe, 0xf3, 0xc9, 0x0c, 0xbe,
  0xfd, 0x27, 0xc1, 0xbd, 0x61, 0x54, 0xf8, 0xbe, 0xc3, 0xf7, 0xdc, 0x3b,
  0x7c, 0xd5, 0xd1, 0xbe, 0x30, 0x51, 0xd6, 0x3c, 0xde, 0xdf, 0xcd, 0x3d,
  0x75, 0xdd, 0x2d, 0xbc, 0xc7, 0x46, 0xa8, 0xbc, 0xf2, 0x60, 0xe0, 0xbd,
  0xbe, 0xf1, 0x9d, 0xbe, 0x36, 0x22, 0xcc, 0xbc, 0x2c, 0x2c, 0x4b, 0xbc,
  0x08, 0xde, 0x91, 0xbd, 0x5b, 0xc0, 0xef, 0xbc, 0xe2, 0xdc, 0xf3, 0x3b,
  0x78, 0xd2, 0x8d, 0x3c, 0x16, 0x07, 0xa0, 0x3d, 0x03, 0x58, 0x7e, 0xbe,
  0x3a, 0xfc, 0x79, 0xbb, 0xf5, 0xfe, 0x8a, 0x3d, 0xf5, 0x14, 0x06, 0xbd,
  0x72, 0x8e, 0xa7, 0xbe, 0x75, 0x00, 0x2d, 0xbf, 0xe6, 0x17, 0x0f, 0x3e,
  0x98, 0x57, 0xa1, 0x3d, 0x20, 0xf0, 0x4e, 0xbd, 0x3d, 0xaf, 0xad, 0xbd,
  0x0f, 0x30, 0x09, 0xbf, 0x65, 0xce, 0x69, 0xbb, 0x75, 0x21, 0x89, 0xbe,
  0x13, 0x40, 0x81, 0xbe, 0x76, 0xd1, 0xe5, 0x3d, 0x5b, 0xbd, 0x9f, 0x3d,
  0xfc, 0x9c, 0x10, 0x3d, 0x24, 0x5d, 0x23, 0xbe, 0x76, 0x96, 0x3c, 0xbf,
  0x75, 0x4b, 0x05, 0xbd, 0x84, 0x27, 0x8f, 0x3e, 0x4b, 0x17, 0xa4, 0xbe,
  0xea, 0xe4, 0x50, 0xbc, 0x2c, 0xdb, 0x0d, 0x3e, 0xb1, 0x6d, 0x9d, 0x3e,
  0xc5, 0xdb, 0x7f, 0xbe, 0x7d, 0x82, 0xc7, 0xbc, 0xee, 0x9d, 0x36, 0x3d,
  0xa0, 0x9c, 0x93, 0x3e, 0x04, 0xca, 0xc5, 0x3c, 0xc7, 0x1c, 0xd4, 0xbd,
  0xfa, 0x3f, 0x5c, 0xbd, 0x51, 0x9c, 0x82, 0x3d, 0x63, 0x7b, 0xf1, 0xbd,
  0xf9, 0x65, 0xe9, 0x3d, 0xe7, 0x68, 0xa4, 0xbd, 0xff, 0x19, 0x4f, 0x3d,
  0x5e, 0xc6, 0x3c, 0x3d, 0x57, 0xe8, 0x9c, 0x3d, 0x53, 0x86, 0x29, 0x3d,
  0x1c, 0x75, 0xf1, 0x3d, 0x42, 0xd2, 0xfd, 0xbd, 0xef, 0x79, 0x98, 0x3e,
  0xd6, 0x96, 0x00, 0xbf, 0xc9, 0x13, 0xb8, 0xbe, 0x91, 0x51, 0xbf, 0x3e,
  0xff, 0x31, 0xdb, 0x3d, 0x57, 0xa1, 0x1b, 0x3e, 0xbb, 0x4c, 0x37, 0xbe,
  0x32, 0xea, 0x9c, 0xbe, 0x0d, 0x39, 0xd8, 0xbd, 0x8c, 0x85, 0xfd, 0xbd,
  0xd6, 0x13, 0x89, 0xbd, 0xda, 0xc9, 0x0c, 0xbe, 0x69, 0xbe, 0x88, 0x3d,
  0x78, 0xf0, 0x9f, 0x3d, 0xac, 0x30, 0x8b, 0xbe, 0xcc, 0xdc, 0x38, 0xbe,
  0x92, 0xe6, 0x2a, 0xbe, 0xac, 0x50, 0x57, 0x3c, 0xaa, 0x5f, 0x07, 0x3b,
  0x51, 0x68, 0xbb, 0xbe, 0x0d, 0x68, 0x8e, 0xbe, 0xd1, 0x24, 0x4c, 0xbe,
  0xa1, 0x27, 0xa4, 0xbe, 0x96, 0x7f, 0xaf, 0x3c, 0x26, 0xe3, 0xa8, 0xbe,
  0x8c, 0x3b, 0xc9, 0x3d, 0x41, 0x57, 0xad, 0xbc, 0x0d, 0x48, 0xbe, 0x3e,
  0xc2, 0xcd, 0x40, 0xbc, 0xa8, 0xdf, 0xc3, 0xbb, 0x85, 0xf3, 0x36, 0xbe,
  0xde, 0x83, 0xdd, 0xbd, 0xac, 0x4b, 0xc9, 0x3e, 0x42, 0xbd, 0x07, 0xbe,
  0x07, 0xca, 0x21, 0x3e, 0x70, 0xf6, 0x1e, 0xbe, 0x91, 0x17, 0xac, 0xbc,
  0xd7, 0x86, 0x09, 0xbd, 0x66, 0x8d, 0x43, 0xbe, 0x38, 0x49, 0xb5, 0xbd,
  0xee, 0x8f, 0xe5, 0x3d, 0xc5, 0xf7, 0x21, 0xbd, 0xf6, 0xfa, 0x40, 0x3e,
  0xf8, 0x8f, 0x00, 0xbe, 0x38, 0x4a, 0x84, 0xbd, 0x32, 0xeb, 0x9e, 0x3e,
  0x6b, 0xa1, 0x25, 0xbe, 0xe4, 0x58, 0xd6, 0xbd, 0x44, 0x98, 0xc7, 0x3d,
  0xb5, 0xc0, 0x0c, 0xbd, 0xd2, 0x70, 0x75, 0x3e, 0xf4, 0xe0, 0x3d, 0xbe,
  0xf8, 0x27, 0xb0, 0xbd, 0x48, 0xec, 0x81, 0x3c, 0x34, 0xb7, 0x5a, 0xbe,
  0x9a, 0x71, 0xb1, 0x3d, 0xaf, 0x64, 0xe6, 0x3c, 0xf8, 0x19, 0xcf, 0xbb,
  0x65, 0x51, 0x81, 0x3d, 0x7a, 0x1e, 0x00, 0xbf, 0xb5, 0xe7, 0x6b, 0x3d,
  0x5e, 0x80, 0xd4, 0x3c, 0x7a, 0x30, 0xa6, 0xbd, 0x5c, 0x27, 0x74, 0x3d,
  0x55, 0x8e, 0xda, 0xbe, 0x38, 0x33, 0x47, 0x3e, 0xa0, 0x28, 0x48, 0xbd,
  0xd8, 0x21, 0x6d, 0xbe, 0xbb, 0x69, 0xc0, 0x3e, 0x92, 0x1d, 0xec, 0x3d,
  0x98, 0x50, 0x97, 0xbd, 0x4a, 0xde, 0x35, 0xbd, 0x7e, 0x45, 0xa9, 0xbe,
  0x80, 0x6f, 0x08, 0x3e, 0xde, 0xdb, 0x69, 0x3d, 0xf3, 0xa9, 0xba, 0xbd,
  0xbc, 0xc5, 0x96, 0xbe, 0x0f, 0xae, 0x75, 0xbe, 0x2f, 0xfd, 0xcd, 0x3c,
  0x4e, 0x4c, 0x81, 0xbd, 0xad, 0xdc, 0x07, 0x3e, 0xb2, 0xee, 0xfe, 0xbd,
  0x30, 0x4a, 0x56, 0x3e, 0xd7, 0x75, 0x71, 0x3e, 0x1a, 0xa4, 0xe7, 0xbe,
  0xb0, 0x41, 0x12, 0xbf, 0x9d, 0xcd, 0xdc, 0x3d, 0x04, 0xa6, 0x69, 0xbe,
  0x91, 0xaf, 0x66, 0xbb, 0x30, 0xcb, 0x88, 0xbe, 0xf5, 0xf2, 0x1b, 0x3e,
  0x79, 0xcb, 0x6e, 0xbd, 0x74, 0xf8, 0x96, 0xbc, 0x3d, 0xe1, 0x9f, 0x3d,
  0x43, 0x82, 0x96, 0x3d, 0x01, 0x19, 0xbf, 0xbc, 0xb1, 0xc8, 0x0a, 0xbe,
  0xfd, 0xd2, 0xc5, 0x3e, 0x52, 0x80, 0x8c, 0x3e, 0xe0, 0x60, 0x61, 0xbd,
  0x79, 0x10, 0x21, 0xbe, 0x8d, 0x7c, 0xdd, 0x3b, 0x8f, 0xc0, 0xa0, 0xbc,
  0xbb, 0xfc, 0x27, 0xbe, 0x16, 0x6c, 0x19, 0xbd, 0x8a, 0x8d, 0x3c, 0xbe,
  0x2e, 0x87, 0x94, 0x3e, 0x76, 0x39, 0xe8, 0xbb, 0xdb, 0xff, 0x64, 0xbd,
  0x05, 0x0d, 0xa7, 0xbd, 0x96, 0x34, 0x04, 0x3d, 0xbb, 0xaa, 0x39, 0xbe,
  0xbd, 0x96, 0xb0, 0x3c, 0x91, 0x5f, 0x4e, 0xbe, 0x6b, 0x50, 0x2e, 0xbe,
  0xc7, 0x12, 0x9f, 0x3d, 0x44, 0xb4, 0xe4, 0xbd, 0x13, 0x1a, 0x00, 0xbe,
  0xbd, 0xf1, 0x06, 0x3d, 0x61, 0xcf, 0x7d, 0xbd, 0xf2, 0x84, 0x61, 0x3c,
  0x14, 0x2b, 0x80, 0xbe, 0xe2, 0xdd, 0xff, 0xff, 0x10, 0x00, 0x00, 0x00,
  0x0a, 0x00, 0x00, 0x00, 0x1c, 0x00, 0x00, 0x00, 0x38, 0x00, 0x00, 0x00,
  0x04, 0x00, 0x00, 0x00, 0x10, 0x00, 0x00, 0x00, 0x04, 0x00, 0x00, 0x00,
  0x01, 0x00, 0x00, 0x00, 0x08, 0x00, 0x00, 0x00, 0x1a, 0x00, 0x00, 0x00,
  0x73, 0x65, 0x71, 0x75, 0x65, 0x6e, 0x74, 0x69, 0x61, 0x6c, 0x2f, 0x63,
  0x6f, 0x6e, 0x76, 0x32, 0x64, 0x5f, 0x31, 0x2f, 0x43, 0x6f, 0x6e, 0x76,
  0x32, 0x44, 0x00, 0x00, 0x58, 0xdd, 0xff, 0xff, 0x62, 0xde, 0xff, 0xff,
  0x04, 0x00, 0x00, 0x00, 0x80, 0x01, 0x00, 0x00, 0x52, 0x86, 0x2b, 0x3c,
  0x41, 0x2f, 0x36, 0xbe, 0x57, 0xba, 0x88, 0xbd, 0xb9, 0xff, 0x0b, 0xbd,
  0xfa, 0x1e, 0xa1, 0xbe, 0x17, 0xbb, 0x5f, 0xbd, 0x05, 0xbc, 0x09, 0xbd,
  0xff, 0xb5, 0xb2, 0x3d, 0xb7, 0x4d, 0x9c, 0xbc, 0x18, 0x73, 0xa3, 0x3d,
  0xb6, 0x55, 0xaf, 0x3e, 0x2c, 0xb9, 0x30, 0x3e, 0x82, 0x02, 0x86, 0xbd,
  0xdf, 0x78, 0x6e, 0x3e, 0x33, 0x83, 0x88, 0x3e, 0x41, 0x85, 0x78, 0x3d,
  0x71, 0x9d, 0xbf, 0x3c, 0x91, 0x52, 0xa3, 0x3e, 0x8a, 0xdf, 0xfd, 0x3d,
  0x69, 0xc0, 0x81, 0xbe, 0x2f, 0x12, 0x0e, 0xbe, 0xc6, 0x80, 0x17, 0x3e,
  0xa0, 0x18, 0xe3, 0x3a, 0xb9, 0xf6, 0xdb, 0xbd, 0x45, 0x77, 0x90, 0x3e,
  0x64, 0x14, 0xa5, 0xbc, 0x0a, 0x30, 0x8a, 0xbd, 0xa0, 0x89, 0x87, 0x3e,
  0x35, 0x80, 0xf2, 0x3d, 0xbb, 0x85, 0xd1, 0xbc, 0xdb, 0xdc, 0x41, 0xbe,
  0x6b, 0x80, 0x9d, 0x3c, 0x22, 0xd7, 0x22, 0x3e, 0x8a, 0x17, 0xab, 0xbe,
  0x98, 0xa6, 0x0e, 0xbe, 0xfe, 0x21, 0x88, 0x3d, 0xb3, 0xee, 0x96, 0x3e,
  0x3a, 0x43, 0x4a, 0x3e, 0x9f, 0xc3, 0x92, 0x3e, 0x02, 0x3d, 0x09, 0x3d,
  0x1b, 0x0f, 0xcf, 0xba, 0x56, 0xef, 0x06, 0xbd, 0x24, 0xc4, 0x0b, 0xbe,
  0xcb, 0xc1, 0x4c, 0xbd, 0xa2, 0x1d, 0x2a, 0xbd, 0x4d, 0xce, 0x7a, 0xbd,
  0x48, 0x3f, 0x82, 0xbe, 0xee, 0x28, 0x5d, 0xbe, 0x60, 0x01, 0x8d, 0x3b,
  0x6b, 0x1d, 0x4c, 0xbd, 0x5a, 0x96, 0x54, 0x3d, 0xe3, 0x95, 0x8b, 0xbc,
  0xf5, 0x7f, 0x0d, 0x3e, 0xa7, 0xa0, 0x2f, 0x3e, 0xc4, 0x3d, 0xaa, 0x3c,
  0x25, 0x1d, 0x60, 0x3e, 0x49, 0x34, 0xc5, 0x3b, 0x8e, 0xb4, 0x4c, 0x3d,
  0x6b, 0xf9, 0x62, 0x3d, 0xef, 0xd1, 0x7d, 0xbb, 0x78, 0xa9, 0x72, 0x3c,
  0xad, 0x4d, 0x15, 0x3e, 0xd7, 0xa4, 0x9a, 0xbe, 0x5c, 0x17, 0x29, 0xbd,
  0xcf, 0x3b, 0x83, 0xbc, 0x09, 0xd7, 0x76, 0xbe, 0xae, 0x6d, 0xe1, 0xbd,
  0xc8, 0x4d, 0xe4, 0x3c, 0xc5, 0x77, 0x0d, 0xbd, 0x13, 0x59, 0x68, 0x3e,
  0x06, 0x87, 0x9a, 0xbd, 0x57, 0xe6, 0xaa, 0x3e, 0x99, 0x84, 0x18, 0xbe,
  0x62, 0xd8, 0x04, 0xbe, 0xc3, 0x6a, 0x8d, 0x3d, 0x46, 0x70, 0x23, 0x3f,
  0x24, 0x83, 0xfa, 0x3d, 0xf0, 0xc5, 0x2f, 0x3e, 0x61, 0x17, 0xb6, 0x3e,
  0x52, 0xe5, 0xb4, 0xbc, 0xe7, 0x21, 0x88, 0xbd, 0xa7, 0xd4, 0x0c, 0xbf,
  0x66, 0x59, 0xda, 0x3d, 0xe8, 0x05, 0x9c, 0xbe, 0xc3, 0x6f, 0x9c, 0x3c,
  0x84, 0x51, 0x8a, 0x3c, 0x4e, 0xa6, 0xb2, 0xbd, 0x55, 0xba, 0x9d, 0xbd,
  0xd2, 0x63, 0xf2, 0x3d, 0xe2, 0xa4, 0x2f, 0xbe, 0x63, 0xbd, 0x86, 0x3c,
  0x7d, 0x53, 0x4f, 0xbd, 0xb6, 0x46, 0x07, 0xbd, 0xc1, 0x94, 0x19, 0x3d,
  0x60, 0x12, 0x20, 0xbe, 0xf5, 0x0e, 0xc4, 0x3d, 0xba, 0xdf, 0xff, 0xff,
  0x10, 0x00, 0x00, 0x00, 0x09, 0x00, 0x00, 0x00, 0x1c, 0x00, 0x00, 0x00,
  0x38, 0x00, 0x00, 0x00, 0x04, 0x00, 0x00, 0x00, 0x08, 0x00, 0x00, 0x00,
  0x04, 0x00, 0x00, 0x00, 0x03, 0x00, 0x00, 0x00, 0x01, 0x00, 0x00, 0x00,
  0x18, 0x00, 0x00, 0x00, 0x73, 0x65, 0x71, 0x75, 0x65, 0x6e, 0x74, 0x69,
  0x61, 0x6c, 0x2f, 0x63, 0x6f, 0x6e, 0x76, 0x32, 0x64, 0x2f, 0x43, 0x6f,
  0x6e, 0x76, 0x32, 0x44, 0x00, 0x00, 0x00, 0x00, 0x30, 0xdf, 0xff, 0xff,
  0x3a, 0xe0, 0xff, 0xff, 0x04, 0x00, 0x00, 0x00, 0x00, 0x01, 0x00, 0x00,
  0x26, 0xe0, 0x33, 0x3e, 0x6a, 0xc1, 0xae, 0x3e, 0x1e, 0xee, 0x34, 0x3e,
  0x31, 0x67, 0x52, 0x3e, 0xed, 0xd7, 0x2b, 0x3c, 0xb6, 0xe9, 0x3d, 0x3f,
  0x50, 0x46, 0xd7, 0x3d, 0x98, 0x1a, 0x2c, 0xbd, 0x36, 0xa6, 0xf7, 0x3e,
  0x83, 0xad, 0xd5, 0xbe, 0x01, 0xe2, 0x67, 0xbe, 0xdd, 0x3d, 0xee, 0x3d,
  0x25, 0x9e, 0xb6, 0xbd, 0x2e, 0x76, 0xbd, 0x3b, 0x8c, 0xa7, 0x0e, 0x3e,
  0x34, 0x59, 0xd8, 0x3d, 0xa9, 0xc7, 0xdf, 0xbe, 0xbd, 0x44, 0xc6, 0x3e,
  0x55, 0x97, 0x87, 0x3e, 0xaf, 0xb9, 0x4c, 0x3e, 0x07, 0x29, 0x48, 0xbc,
  0x8c, 0x43, 0x21, 0xbc, 0xf0, 0xc2, 0xa5, 0x3d, 0x32, 0xcb, 0x34, 0xbd,
  0x03, 0x90, 0x4e, 0xbe, 0x8c, 0x21, 0xe5, 0xbd, 0x54, 0xff, 0x72, 0xbe,
  0xdb, 0x7f, 0x57, 0x3e, 0x6d, 0x1c, 0x13, 0xbe, 0x0d, 0xd1, 0x20, 0x3e,
  0x64, 0xd3, 0x84, 0xbe, 0xcc, 0xd6, 0x04, 0x3e, 0x44, 0x10, 0xca, 0xbd,
  0x59, 0x00, 0xc3, 0x3e, 0xe7, 0xaa, 0x25, 0x3e, 0x97, 0xf9, 0x0a, 0x3e,
  0xb0, 0x61, 0x5c, 0xbb, 0xd8, 0x8f, 0x06, 0xbf, 0x12, 0xbd, 0x18, 0x3e,
  0x2a, 0x0f, 0x59, 0x3d, 0x8c, 0x3f, 0x6f, 0xbf, 0xc0, 0x2e, 0x76, 0x3e,
  0x8a, 0x4a, 0x2d, 0x3e, 0x47, 0x4e, 0xc7, 0x3d, 0x87, 0x5c, 0xd8, 0xbd,
  0xf7, 0x98, 0x04, 0x3c, 0x69, 0x57, 0x0d, 0xbe, 0x75, 0x82, 0x6e, 0xbd,
  0xa3, 0x85, 0x74, 0x3e, 0xc4, 0x43, 0x9c, 0x3e, 0x4b, 0x45, 0x3a, 0x3e,
  0x3e, 0x9e, 0xdd, 0x3d, 0xb3, 0x49, 0xb4, 0xbd, 0xac, 0x17, 0x57, 0xbe,
  0x8b, 0xff, 0xd4, 0x3d, 0x26, 0x49, 0xb4, 0x3c, 0x78, 0xd1, 0x4a, 0xbf,
  0x82, 0xdb, 0xd6, 0x3e, 0xa7, 0xef, 0x86, 0xbe, 0x7f, 0x26, 0x49, 0x3e,
  0x25, 0x75, 0x33, 0xbe, 0x94, 0x48, 0x24, 0x3e, 0x6d, 0xb7, 0xdc, 0x3d,
  0x01, 0x61, 0x4b, 0x3d, 0x12, 0xe1, 0xff, 0xff, 0x10, 0x00, 0x00, 0x00,
  0x08, 0x00, 0x00, 0x00, 0x14, 0x00, 0x00, 0x00, 0x30, 0x00, 0x00, 0x00,
  0x02, 0x00, 0x00, 0x00, 0x04, 0x00, 0x00, 0x00, 0x10, 0x00, 0x00, 0x00,
  0x19, 0x00, 0x00, 0x00, 0x73, 0x65, 0x71, 0x75, 0x65, 0x6e, 0x74, 0x69,
  0x61, 0x6c, 0x2f, 0x64, 0x65, 0x6e, 0x73, 0x65, 0x5f, 0x31, 0x2f, 0x4d,
  0x61, 0x74, 0x4d, 0x75, 0x6c, 0x00, 0x00, 0x00, 0x80, 0xe0, 0xff, 0xff,
  0x8a, 0xe1, 0xff, 0xff, 0x04, 0x00, 0x00, 0x00, 0x00, 0x1c, 0x00, 0x00,
  0x42, 0x23, 0x5f, 0xbe, 0x95, 0x6a, 0x1a, 0x3e, 0x91, 0x40, 0x0a, 0x3e,
  0x63, 0x03, 0x8a, 0xbd, 0xf4, 0x63, 0x94, 0xbd, 0xf2, 0xbf, 0x46, 0xbd,
  0x50, 0x1f, 0xb1, 0xbd, 0x6f, 0xcd, 0xb1, 0xbe, 0xc5, 0x27, 0x5b, 0xbe,
  0xa8, 0x21, 0x0b, 0xbe, 0x86, 0x3a, 0xa0, 0xbc, 0xf9, 0x19, 0x03, 0xbe,
  0x23, 0xfd, 0x8c, 0x3d, 0x3a, 0x4a, 0x88, 0xbe, 0x96, 0x3b, 0x8d, 0x3d,
  0x1e, 0x55, 0xfb, 0xbc, 0xc2, 0x7c, 0x05, 0xbe, 0x88, 0x93, 0xd5, 0xbd,
  0x91, 0x39, 0x1b, 0xbe, 0x38, 0x7a, 0xd7, 0xbc, 0x24, 0x17, 0x11, 0x3d,
  0xf5, 0x84, 0x8b, 0xbe, 0x7a, 0xb6, 0x1c, 0xbe, 0x70, 0x1c, 0x6b, 0xbe,
  0x1e, 0x3d, 0xe6, 0xbd, 0x86, 0xd8, 0x64, 0xbe, 0x48, 0x27, 0xf9, 0x3c,
  0x9f, 0x1e, 0x81, 0xbd, 0x0f, 0xed, 0xe9, 0x3d, 0x3c, 0x0d, 0xb0, 0xbe,
  0x9a, 0xf2, 0x49, 0xbe, 0x4e, 0x82, 0x95, 0xbd, 0x28, 0x01, 0x46, 0x3d,
  0x61, 0xad, 0xa0, 0x3e, 0xa3, 0x7f, 0x2a, 0xbe, 0x3a, 0xe1, 0x43, 0xbe,
  0x01, 0xa2, 0x0d, 0xbe, 0xc3, 0x09, 0xad, 0xbd, 0x8a, 0xb5, 0x27, 0x3e,
  0x12, 0xd7, 0xbc, 0xbe, 0x26, 0x10, 0x69, 0xbe, 0x05, 0x72, 0x23, 0xbd,
  0xd9, 0x68, 0x81, 0xbb, 0xc7, 0x1a, 0xa4, 0x3b, 0x02, 0x72, 0x2a, 0xbe,
  0xe7, 0x47, 0x8b, 0xbc, 0x53, 0x72, 0x97, 0xbb, 0x78, 0xef, 0x10, 0x3d,
  0x5a, 0xa6, 0xc1, 0x3d, 0x1b, 0x13, 0xdb, 0x3d, 0x73, 0xb2, 0xcb, 0xb9,
  0xc2, 0x53, 0x3c, 0x3c, 0x78, 0xc4, 0xdb, 0x3d, 0x07, 0x26, 0x0d, 0x3e,
  0x58, 0xda, 0x59, 0x3e, 0x77, 0xa5, 0xc9, 0xbe, 0xac, 0xcb, 0xe3, 0x3d,
  0x98, 0x6f, 0x80, 0xbd, 0xdb, 0xed, 0x07, 0x3e, 0x09, 0x48, 0x93, 0x3d,
  0xd3, 0xf2, 0x2d, 0xbd, 0x80, 0xd3, 0xff, 0xbd, 0xb3, 0xa0, 0x1b, 0x3e,
  0xdd, 0xbf, 0xe4, 0xbd, 0x2e, 0x63, 0x6d, 0x3d, 0x5b, 0xb6, 0x95, 0x3d,
  0x58, 0xf6, 0xcf, 0x3d, 0xc2, 0xdb, 0x77, 0xbd, 0x01, 0xa1, 0x82, 0x3d,
  0xb4, 0xa8, 0x6a, 0xbe, 0x6d, 0xc8, 0x19, 0x3e, 0xce, 0xb9, 0x99, 0xbe,
  0x32, 0x65, 0xe8, 0x3c, 0x9f, 0x0a, 0x69, 0xbe, 0x82, 0x25, 0x1d, 0x3e,
  0x88, 0xdd, 0xdb, 0x3c, 0xe4, 0x48, 0xe4, 0x3d, 0x80, 0x18, 0x50, 0xbe,
  0x6c, 0x07, 0x7c, 0xbe, 0xd7, 0x3c, 0xb3, 0x3d, 0x48, 0x34, 0xdf, 0xbd,
  0x8c, 0x42, 0x28, 0x3e, 0xdc, 0x67, 0xae, 0x3c, 0xc0, 0xbd, 0x7d, 0xbc,
  0x24, 0x69, 0xc1, 0xbd, 0x85, 0xfc, 0x87, 0x3d, 0xc9, 0x92, 0xf5, 0x3d,
  0x8c, 0x02, 0xf2, 0xbd, 0x8c, 0xcb, 0xb3, 0xbd, 0xaf, 0x43, 0x5b, 0xbe,
  0x72, 0x75, 0x86, 0x3e, 0x23, 0x8a, 0xa3, 0xbc, 0x2f, 0xb0, 0x13, 0xbd,
  0xbe, 0x79, 0x9b, 0xbc, 0xe4, 0xde, 0xac, 0x3d, 0x8f, 0x8e, 0x34, 0x3d,
  0x79, 0x33, 0x2e, 0xbd, 0x79, 0x29, 0x9f, 0x3d, 0x50, 0x72, 0xb0, 0xbe,
  0x8f, 0xa7, 0x11, 0xbe, 0xc0, 0x15, 0xfd, 0xbd, 0x8b, 0x12, 0xc7, 0xbe,
  0x90, 0xb8, 0xc9, 0xbd, 0xe3, 0x69, 0xca, 0xbe, 0x59, 0x29, 0x31, 0x3e,
  0xbe, 0x58, 0x00, 0xbe, 0xb9, 0xcc, 0xa9, 0xbd, 0x70, 0x16, 0x0b, 0x3d,
  0x0d, 0x9b, 0x6d, 0xbe, 0xd0, 0xe8, 0xb2, 0xbe, 0x33, 0xee, 0x6b, 0xbd,
  0xf9, 0x2d, 0x33, 0x3c, 0x69, 0x36, 0x79, 0xbd, 0xa7, 0xa1, 0x83, 0xbe,
  0xaa, 0x82, 0xfd, 0x3d, 0x45, 0xcb, 0x2f, 0x3e, 0x1b, 0xdc, 0xc1, 0x3e,
  0x36, 0xd0, 0x42, 0xbd, 0xb0, 0x3a, 0xc9, 0xbd, 0xa3, 0xb1, 0xe6, 0xbb,
  0x8f, 0x02, 0x94, 0x3e, 0x48, 0xf5, 0x91, 0x3d, 0xd9, 0xcf, 0x85, 0xbe,
  0x6a, 0x3d, 0x90, 0x3d, 0xf9, 0x89, 0xa3, 0x3d, 0x49, 0x28, 0x9c, 0xbc,
  0xe8, 0x2d, 0x15, 0x3c, 0x86, 0x79, 0x43, 0x3e, 0xc4, 0x7e, 0x78, 0xbe,
  0xac, 0x72, 0xf5, 0xbd, 0x47, 0xb1, 0x9e, 0x3d, 0x88, 0x6b, 0x7e, 0x3e,
  0x80, 0x31, 0x97, 0xbc, 0x48, 0x47, 0xa8, 0xbc, 0xef, 0xdc, 0x22, 0xbd,
  0x85, 0x3d, 0x09, 0xbd, 0xb7, 0x3a, 0xfc, 0x3c, 0xe0, 0x94, 0xa3, 0x3e,
  0xe1, 0x1b, 0x48, 0x3e, 0xcd, 0x2e, 0x16, 0x3e, 0x4a, 0x98, 0x9b, 0x3d,
  0x99, 0xc9, 0xe8, 0x3c, 0x8c, 0xe2, 0x1c, 0x3d, 0xe7, 0x43, 0xfd, 0x3c,
  0xc2, 0x08, 0xd0, 0xbd, 0x9f, 0x6d, 0x15, 0x3e, 0x9d, 0xf3, 0x33, 0x3e,
  0xb4, 0x01, 0xd7, 0xbe, 0x8e, 0x43, 0x08, 0xbf, 0xfa, 0xfa, 0x5d, 0xbd,
  0x7b, 0x89, 0xab, 0x3d, 0x25, 0x3c, 0x94, 0xbd, 0x06, 0x80, 0xa7, 0xbe,
  0x16, 0xd1, 0x76, 0x3d, 0x8e, 0x26, 0x37, 0x3c, 0x5d, 0x3d, 0xd2, 0x3c,
  0x45, 0xe8, 0xd4, 0xbe, 0xad, 0x11, 0xf2, 0xbd, 0xec, 0xd0, 0x70, 0xbe,
  0xd3, 0xc3, 0xeb, 0xbc, 0x67, 0xbb, 0x0d, 0xbf, 0xd0, 0x15, 0x5a, 0xbe,
  0x0e, 0x87, 0x7e, 0xbe, 0x41, 0xad, 0xd1, 0xbe, 0xe5, 0xf2, 0x46, 0xbf,
  0x0c, 0x4a, 0x40, 0xbc, 0xe2, 0x6e, 0x30, 0xbd, 0x83, 0xb7, 0x69, 0xbd,
  0x67, 0xef, 0x35, 0xbe, 0x5b, 0x8a, 0xb6, 0xbd, 0x8c, 0x63, 0x01, 0xbe,
  0xe0, 0x6e, 0x86, 0xbd, 0x1f, 0xc2, 0x06, 0xbf, 0x4d, 0xc1, 0x1e, 0xbe,
  0x12, 0x2a, 0x84, 0xbd, 0xe2, 0x49, 0x67, 0xbe, 0x3d, 0x6d, 0x16, 0xbf,
  0x3c, 0x19, 0x87, 0xbe, 0xa6, 0xfc, 0x90, 0xbd, 0xa0, 0x9d, 0xd7, 0x3d,
  0x38, 0x83, 0xa0, 0xbe, 0x67, 0x06, 0x44, 0xbd, 0xd3, 0xf6, 0xa4, 0xbd,
  0x62, 0xd4, 0x5a, 0xbc, 0xf1, 0x78, 0x26, 0x3e, 0xda, 0x23, 0x13, 0x3e,
  0x81, 0xa6, 0xa3, 0xbe, 0xf9, 0x01, 0x49, 0xbd, 0x4a, 0x32, 0xb1, 0xbe,
  0x66, 0x57, 0x6d, 0xbd, 0xd3, 0xdc, 0xd8, 0xbe, 0x71, 0x23, 0xc2, 0xbe,
  0x66, 0x60, 0x63, 0xbe, 0x42, 0x12, 0x88, 0xbe, 0x4f, 0xb7, 0x6a, 0xbe,
  0xe0, 0x26, 0xba, 0x3d, 0x3e, 0x4e, 0x04, 0x3f, 0x4b, 0x67, 0x57, 0xbd,
  0x39, 0x21, 0x7c, 0x3c, 0x14, 0x47, 0x41, 0x3d, 0x82, 0x59, 0xf8, 0x3e,
  0x87, 0xaf, 0x9b, 0x3e, 0x89, 0xb2, 0xc3, 0xbe, 0x6e, 0x72, 0xe4, 0x3d,
  0xbe, 0x70, 0xbf, 0x3d, 0x61, 0xf4, 0x98, 0xbd, 0x2d, 0x18, 0x8d, 0x3d,
  0x00, 0x49, 0x12, 0x3e, 0xec, 0x72, 0xeb, 0xbb, 0xf7, 0x9c, 0x4c, 0xbe,
  0xc6, 0x81, 0x0b, 0x3e, 0x5f, 0xb1, 0x26, 0x3e, 0x46, 0x5d, 0x66, 0x3d,
  0x2e, 0xd0, 0x4b, 0xbc, 0xfe, 0xb3, 0xdb, 0xbc, 0x44, 0x0b, 0xd5, 0x3d,
  0xf3, 0x96, 0x3e, 0x3e, 0xfb, 0x33, 0xbb, 0x3e, 0x8c, 0xc6, 0x8f, 0xbd,
  0x68, 0xb8, 0x10, 0x3c, 0x25, 0xce, 0x88, 0xbc, 0x28, 0x24, 0x0c, 0xbd,
  0x80, 0x43, 0xd4, 0x3d, 0x70, 0x0f, 0x9c, 0x3c, 0x6f, 0x38, 0x8d, 0xbe,
  0x1f, 0x7d, 0xce, 0x3d, 0xa1, 0xc7, 0x96, 0xbe, 0x32, 0x94, 0xe4, 0xbe,
  0x56, 0xcb, 0x89, 0xbe, 0xb4, 0x69, 0xf5, 0xbd, 0xea, 0xbe, 0x24, 0xbe,
  0x22, 0x17, 0xbe, 0xbe, 0x86, 0xb7, 0xf3, 0xbe, 0xb8, 0x1d, 0xb3, 0xbc,
  0xb3, 0x4d, 0x8c, 0xbd, 0x87, 0x09, 0x5b, 0xbe, 0x6f, 0xb4, 0xca, 0xbe,
  0x51, 0x15, 0xc2, 0xbd, 0x01, 0xf9, 0xb2, 0xbe, 0x08, 0x30, 0xcd, 0xbd,
  0x01, 0x49, 0x89, 0xbe, 0x94, 0x34, 0x89, 0x3c, 0x7e, 0xb8, 0xf9, 0xbc,
  0xcf, 0x28, 0x90, 0xbe, 0x4d, 0x70, 0x9b, 0xbe, 0x17, 0x2c, 0x9b, 0xbd,
  0x77, 0x78, 0x41, 0x3d, 0x67, 0x5a, 0x90, 0xbe, 0x0a, 0x52, 0x55, 0xbe,
  0xed, 0x77, 0x84, 0xbe, 0x03, 0x5d, 0xda, 0xbc, 0x0b, 0x16, 0x8f, 0xbe,
  0x9f, 0xec, 0x8e, 0xbd, 0x5d, 0xa7, 0x34, 0xbd, 0xd7, 0x27, 0xff, 0xbc,
  0x52, 0x5f, 0x60, 0xbd, 0x9e, 0x40, 0xaa, 0xbd, 0x24, 0xdf, 0x81, 0xbe,
  0x41, 0x1f, 0x40, 0xbe, 0xe4, 0x43, 0x9a, 0xbe, 0x3c, 0x88, 0x9c, 0xbe,
  0x58, 0x6a, 0x89, 0xbd, 0x05, 0x2a, 0x29, 0xbe, 0x16, 0xb7, 0xb9, 0xbe,
  0xfa, 0x2b, 0x21, 0x3c, 0x72, 0x12, 0x8a, 0xbe, 0x16, 0xeb, 0x23, 0x3b,
  0x8b, 0x0f, 0x2a, 0xbe, 0x57, 0x17, 0x58, 0xbd, 0x9f, 0x26, 0x2f, 0xbd,
  0xb7, 0x29, 0x18, 0xbe, 0x31, 0xc7, 0x50, 0xbd, 0x5b, 0xd5, 0x6b, 0xbd,
  0x15, 0xff, 0x83, 0x3c, 0xc9, 0xa8, 0x39, 0x3e, 0xde, 0xb0, 0xf8, 0xbe,
  0x7b, 0xf7, 0xb0, 0xbd, 0x3a, 0xa3, 0x6b, 0xbd, 0xd3, 0x18, 0x4d, 0xbe,
  0x87, 0xee, 0x93, 0xbe, 0xd5, 0x3c, 0x27, 0xbd, 0x72, 0x78, 0x33, 0xbe,
  0x00, 0xeb, 0x88, 0x3b, 0xaa, 0x8f, 0xcf, 0xbe, 0x3d, 0x8a, 0x7b, 0xbd,
  0xe5, 0x9d, 0x1e, 0xbd, 0x20, 0x48, 0xa1, 0xbd, 0xe5, 0x82, 0xd0, 0xbc,
  0x4e, 0x22, 0x23, 0xbe, 0xa7, 0x2d, 0xb3, 0xbe, 0x21, 0x0c, 0x52, 0xbc,
  0xaf, 0x65, 0x6b, 0xbe, 0x43, 0x77, 0x04, 0x3e, 0x20, 0x6f, 0xe4, 0xbb,
  0x49, 0x5f, 0x34, 0xbe, 0xf1, 0x4c, 0x9b, 0xbd, 0x80, 0xba, 0x6b, 0x3e,
  0x1c, 0x0b, 0x1f, 0x3e, 0x44, 0x13, 0x3d, 0xbd, 0xa4, 0xf3, 0x01, 0x3d,
  0x9f, 0xc9, 0x65, 0xbb, 0x0b, 0xdd, 0x0a, 0xbd, 0x3e, 0xd2, 0xb5, 0xbc,
  0x9f, 0x56, 0x49, 0xbe, 0x04, 0x24, 0xc2, 0xbe, 0x5f, 0x16, 0x9f, 0xbe,
  0xa3, 0x6c, 0xd3, 0xbb, 0xc9, 0x10, 0xbf, 0x3b, 0x51, 0x29, 0xb0, 0x3e,
  0x9b, 0x13, 0xfa, 0x3c, 0xc4, 0x04, 0xb0, 0x3d, 0x39, 0xfa, 0x5a, 0xbc,
  0x37, 0x2a, 0xcf, 0x3e, 0x3a, 0x17, 0xbf, 0x3e, 0xca, 0x56, 0x49, 0xbe,
  0x6c, 0x72, 0x16, 0xbe, 0x5f, 0xfb, 0xa6, 0x3e, 0xba, 0x74, 0xa5, 0x3d,
  0x69, 0x1d, 0x86, 0xbe, 0xc6, 0xc8, 0x20, 0xbe, 0xf3, 0x15, 0xd1, 0xbd,
  0xab, 0xc2, 0xcb, 0xbd, 0x06, 0x7c, 0x0c, 0x3e, 0xcb, 0xc2, 0x74, 0x3d,
  0x45, 0x3e, 0xf4, 0x3b, 0x65, 0x37, 0xfa, 0x3c, 0x2f, 0x10, 0xa6, 0x3d,
  0x5e, 0xb5, 0xce, 0x3d, 0xef, 0x42, 0x41, 0x3e, 0x3a, 0xe2, 0x5c, 0x3e,
  0xf0, 0xc0, 0x0b, 0x3d, 0x79, 0xe7, 0xbd, 0xbd, 0x00, 0xe8, 0x93, 0x3d,
  0x4b, 0x4f, 0xa7, 0x3c, 0xfa, 0x98, 0xe9, 0xbd, 0x98, 0x48, 0x7c, 0xbd,
  0xc6, 0xd1, 0x21, 0x3e, 0x2b, 0x30, 0xa2, 0x3e, 0x28, 0x9e, 0x81, 0x3c,
  0x6f, 0x66, 0x23, 0x3e, 0xd0, 0x59, 0xce, 0x3d, 0xa7, 0xea, 0xe7, 0x3d,
  0x48, 0x14, 0x33, 0x3e, 0xc7, 0x8c, 0xce, 0xbb, 0xe1, 0xcf, 0x81, 0x3e,
  0x45, 0xba, 0x16, 0x3e, 0xcb, 0x30, 0xb9, 0x3d, 0x21, 0x87, 0x0d, 0xbe,
  0xe9, 0xaa, 0xb1, 0x3d, 0x5a, 0xf5, 0xa4, 0x3c, 0x03, 0x62, 0xa8, 0xbb,
  0x9b, 0xc1, 0x2e, 0x3e, 0x7a, 0x45, 0x29, 0x3e, 0x01, 0xdf, 0x11, 0x3e,
  0x0c, 0xb5, 0x77, 0xbe, 0x7b, 0x99, 0xed, 0xbd, 0x15, 0x66, 0xc8, 0x3d,
  0xde, 0x29, 0xd1, 0xbd, 0x0e, 0xcd, 0xe6, 0xbd, 0xee, 0x7b, 0x46, 0xbe,
  0xfb, 0x6b, 0x23, 0x3e, 0x14, 0x7f, 0x84, 0x3e, 0xae, 0x02, 0x63, 0x3d,
  0x94, 0xf7, 0x5f, 0xbd, 0xb1, 0x57, 0x56, 0x3e, 0x16, 0xc7, 0xe3, 0xbd,
  0x16, 0x42, 0x4c, 0x3d, 0x91, 0x7b, 0x2c, 0x3d, 0x36, 0xc9, 0x4e, 0x3e,
  0xf2, 0x56, 0xf5, 0xbd, 0x4e, 0x39, 0xa3, 0xbe, 0x1c, 0x1a, 0x48, 0x3e,
  0xa9, 0x7b, 0xb9, 0x3d, 0x01, 0xcf, 0xe3, 0xbd, 0x29, 0x57, 0xf1, 0xbc,
  0x4f, 0x34, 0x2a, 0xbd, 0x17, 0xdf, 0x2e, 0x3d, 0xb3, 0x85, 0x6e, 0x3e,
  0x17, 0x76, 0xb1, 0xbd, 0xd1, 0xe8, 0x31, 0xbe, 0x4a, 0x8c, 0xfd, 0x3d,
  0x37, 0x65, 0xa2, 0xbd, 0x7a, 0x54, 0xea, 0x3d, 0x64, 0x87, 0x3b, 0x3e,
  0xa4, 0xec, 0x82, 0x3e, 0x20, 0x4f, 0xb7, 0xbc, 0x9d, 0xca, 0x9d, 0xbe,
  0xef, 0x6f, 0x0f, 0x3e, 0xdd, 0xf8, 0xda, 0x3c, 0xe5, 0x90, 0xdc, 0xbd,
  0xe6, 0x40, 0xc2, 0x3d, 0x80, 0x48, 0x2c, 0xbd, 0x9e, 0xa7, 0x08, 0xbd,
  0xc1, 0x6e, 0x27, 0x3e, 0xbe, 0x84, 0xdf, 0xbd, 0x1d, 0x13, 0x74, 0xbe,
  0x7c, 0x57, 0xa8, 0x3d, 0x1b, 0xda, 0xf9, 0xbd, 0xdc, 0xf1, 0xfd, 0x3c,
  0xe9, 0x79, 0x1c, 0x3c, 0xfe, 0xa8, 0xac, 0x3d, 0xdc, 0x6d, 0x6b, 0xbc,
  0x19, 0x24, 0x25, 0x3d, 0x2e, 0xdb, 0x37, 0x3e, 0xdd, 0xac, 0x05, 0x3e,
  0xaa, 0xb1, 0x7e, 0xbd, 0xb0, 0xa1, 0x34, 0x3e, 0xc2, 0x80, 0xc2, 0xbc,
  0x1c, 0x0d, 0x57, 0x3d, 0x08, 0x8c, 0xec, 0x3e, 0xd4, 0xe8, 0xe2, 0xbc,
  0x9a, 0x5c, 0x14, 0xbe, 0x2b, 0x65, 0x03, 0xbd, 0xdd, 0xd5, 0x91, 0xbd,
  0x9e, 0xec, 0x0e, 0x3e, 0x5f, 0xd4, 0x67, 0x3e, 0x48, 0xed, 0xf6, 0x3d,
  0x94, 0xa4, 0xf0, 0x3c, 0xf8, 0xbb, 0x7e, 0xbd, 0x2b, 0x63, 0xfa, 0x3d,
  0x8e, 0x33, 0xff, 0x3d, 0x6c, 0x43, 0x41, 0x3b, 0x9a, 0x00, 0xbf, 0x3d,
  0x12, 0x43, 0xed, 0x3c, 0x32, 0x69, 0xb8, 0x3e, 0x8e, 0x0e, 0xa3, 0x3e,
  0x96, 0x52, 0x92, 0xbb, 0xda, 0xde, 0x15, 0xbe, 0x57, 0x80, 0x69, 0x3e,
  0xe6, 0xb3, 0x95, 0xbb, 0x65, 0xe6, 0x92, 0x3d, 0xb4, 0x39, 0x81, 0x3d,
  0x2d, 0x27, 0x7b, 0xbc, 0xbc, 0xa8, 0x0d, 0x3e, 0xe3, 0x3f, 0x67, 0x3c,
  0xde, 0x59, 0xbe, 0x3c, 0xf9, 0xa9, 0xef, 0x3c, 0xea, 0xa0, 0xc0, 0xbc,
  0xc9, 0x5a, 0xa9, 0xbd, 0x67, 0x1d, 0x8f, 0xbd, 0x46, 0xcb, 0x16, 0xbe,
  0x7d, 0xa7, 0x62, 0xbe, 0xe3, 0x46, 0xe9, 0x3d, 0x44, 0xb1, 0x86, 0xbe,
  0xb4, 0x29, 0xd2, 0xbd, 0xc5, 0xc8, 0x14, 0xbd, 0xf3, 0xdf, 0x82, 0xbd,
  0x3d, 0x07, 0x8b, 0x3a, 0xc0, 0x5d, 0x76, 0x3e, 0x5b, 0x4f, 0x45, 0x3e,
  0x0c, 0xec, 0xf1, 0xbd, 0x4c, 0xbb, 0x3f, 0x3e, 0xfe, 0x1a, 0x8e, 0x3d,
  0x52, 0x33, 0xc5, 0xbd, 0x75, 0xed, 0xa0, 0x3d, 0x88, 0xfd, 0x39, 0xbd,
  0xe7, 0x11, 0x60, 0xbd, 0xa5, 0x3b, 0x35, 0x3e, 0xa4, 0xbe, 0x05, 0x3c,
  0x62, 0x8f, 0xcc, 0xbd, 0x49, 0x25, 0xc5, 0xbd, 0x14, 0x85, 0xaa, 0xbd,
  0xae, 0x8c, 0xf0, 0x3d, 0xb5, 0xcc, 0x22, 0x3e, 0x1d, 0x87, 0x88, 0x3e,
  0x31, 0xa6, 0x56, 0x3e, 0x9f, 0x4a, 0x44, 0xbd, 0x28, 0x8a, 0xf4, 0x3d,
  0xdc, 0xb4, 0x04, 0x3e, 0x5a, 0x91, 0x0f, 0xbe, 0xcd, 0x50, 0x01, 0x3d,
  0x95, 0x16, 0xa6, 0xbd, 0x9e, 0x93, 0x77, 0x3c, 0x28, 0x4f, 0x8a, 0x3e,
  0x05, 0x9b, 0x0d, 0xbd, 0xee, 0x80, 0x9f, 0x3d, 0xde, 0x28, 0xc1, 0x3d,
  0xde, 0x3c, 0x37, 0xbd, 0x6f, 0x35, 0x14, 0x3e, 0x2e, 0xae, 0x79, 0x3d,
  0xb1, 0xbc, 0x5d, 0x3e, 0x65, 0x0b, 0x48, 0x3d, 0xe7, 0x0e, 0x5c, 0xbe,
  0xb3, 0x6e, 0x2f, 0x3e, 0x28, 0xfa, 0xf8, 0x3d, 0x9b, 0x21, 0x7b, 0xbd,
  0x8f, 0x11, 0xd8, 0x3d, 0xae, 0x32, 0xf3, 0xbc, 0x66, 0xc2, 0xf6, 0xbd,
  0x4e, 0xab, 0xf7, 0x3d, 0xe2, 0x3d, 0x52, 0xbd, 0x55, 0x87, 0xdc, 0xbc,
  0x39, 0xba, 0x15, 0x3d, 0x69, 0x0c, 0x5a, 0xbd, 0x0b, 0x0a, 0xa6, 0x3d,
  0xcf, 0xcf, 0x03, 0x3d, 0xfb, 0x7d, 0x52, 0x3e, 0x34, 0xa2, 0xb9, 0xbb,
  0xd4, 0xfa, 0x97, 0x3d, 0x35, 0x2c, 0x07, 0x3e, 0x72, 0x18, 0x4d, 0x3d,
  0x57, 0x4f, 0xfd, 0xbd, 0xc5, 0xd6, 0xda, 0xbd, 0x68, 0x80, 0x1c, 0xbd,
  0x33, 0xe5, 0x4c, 0xbe, 0xc3, 0xd4, 0xc2, 0x3b, 0x56, 0xc3, 0x1b, 0xbc,
  0x82, 0xbd, 0xfd, 0x3c, 0x6c, 0xe6, 0x21, 0x3e, 0x20, 0x79, 0xf2, 0xbb,
  0x2b, 0x86, 0x08, 0x3e, 0x3c, 0xfe, 0x8c, 0x3d, 0x11, 0x86, 0x13, 0x3e,
  0x12, 0xaa, 0x29, 0x3d, 0x49, 0x2b, 0xf0, 0x3c, 0xdc, 0x40, 0x36, 0x3e,
  0x78, 0x72, 0x5a, 0x3d, 0x09, 0x4d, 0x36, 0xbe, 0x9a, 0x94, 0x6d, 0x3e,
  0xe1, 0x08, 0x04, 0xbd, 0x80, 0x7c, 0x2a, 0xbe, 0x6e, 0x5d, 0xc9, 0x3d,
  0x4b, 0x01, 0x20, 0xbd, 0xa6, 0x0f, 0x22, 0x3e, 0x0c, 0xa6, 0x10, 0x3e,
  0x3b, 0xc1, 0x73, 0xbd, 0xf7, 0x56, 0x6f, 0x3e, 0xe7, 0x97, 0x9e, 0x3d,
  0xf0, 0x3e, 0x39, 0x3e, 0x8b, 0x72, 0xdb, 0x3d, 0x2b, 0x59, 0x87, 0x3d,
  0xc8, 0x85, 0xfc, 0x3d, 0x15, 0x03, 0x2a, 0xbd, 0xc7, 0x51, 0x35, 0xbe,
  0xc3, 0x5d, 0x24, 0xbd, 0x12, 0x11, 0xc2, 0x3d, 0x16, 0xcd, 0xc0, 0x3d,
  0x5e, 0x36, 0x84, 0x3d, 0x16, 0xc0, 0x09, 0xbd, 0x5c, 0xca, 0x10, 0xbd,
  0x0c, 0x79, 0x84, 0xbd, 0x34, 0xe2, 0x31, 0x3c, 0x95, 0x8f, 0x96, 0x3c,
  0x5c, 0x1e, 0xbf, 0x3c, 0x5c, 0x16, 0xa9, 0x3c, 0xce, 0x7c, 0x6e, 0x3d,
  0xea, 0x9e, 0x04, 0x3e, 0xc7, 0xbf, 0x92, 0x3e, 0x5b, 0x83, 0x4a, 0xbc,
  0x33, 0xdb, 0x08, 0x3d, 0x9f, 0x5f, 0x12, 0xbe, 0xa8, 0x33, 0xb7, 0x3d,
  0x05, 0x26, 0x1b, 0x3c, 0x8a, 0xc9, 0x64, 0x3e, 0xb0, 0x25, 0x5c, 0xbc,
  0xd3, 0x85, 0x78, 0xbb, 0x65, 0x7d, 0x7c, 0xbc, 0x77, 0xb1, 0x77, 0xbc,
  0x28, 0x36, 0x15, 0x3d, 0x72, 0xf4, 0xb9, 0x3c, 0x62, 0x2a, 0x04, 0xbd,
  0x3a, 0xa6, 0x71, 0x3e, 0x77, 0x42, 0xc8, 0x3c, 0x95, 0xc1, 0x61, 0xbe,
  0x30, 0xca, 0x9b, 0xbd, 0x56, 0xe5, 0x2e, 0xbe, 0x81, 0xcc, 0x24, 0x3e,
  0x41, 0xe2, 0x37, 0xbe, 0xbf, 0x4a, 0x70, 0xbc, 0x6d, 0xd9, 0x63, 0x3e,
  0xb2, 0xf2, 0x66, 0x3d, 0xdf, 0x85, 0x45, 0xbe, 0xec, 0x75, 0x6e, 0xbe,
  0xe0, 0x24, 0x6e, 0xbe, 0x89, 0x16, 0x30, 0xbe, 0x60, 0x9f, 0x60, 0x3d,
  0x89, 0x68, 0x0f, 0xbe, 0xf4, 0x03, 0x2f, 0x3e, 0xe0, 0x8e, 0x36, 0xbe,
  0xf8, 0xae, 0x33, 0xbe, 0x9d, 0xe6, 0xf8, 0x3c, 0x35, 0x02, 0x3b, 0xbd,
  0xca, 0x07, 0x24, 0xbe, 0xa4, 0x8f, 0x8b, 0xbe, 0xf2, 0xc9, 0x3b, 0xbe,
  0x9a, 0x8e, 0x09, 0x3f, 0xf2, 0x3a, 0x72, 0x3c, 0x35, 0xbd, 0x58, 0xbe,
  0xcd, 0x13, 0x87, 0xbc, 0x28, 0x56, 0xc5, 0xbd, 0xbf, 0xca, 0x8b, 0xbc,
  0x91, 0x38, 0x59, 0xbd, 0x36, 0xf5, 0x3b, 0xbd, 0xa4, 0x2b, 0x64, 0x3e,
  0x48, 0x8c, 0xd9, 0x3d, 0x18, 0x5e, 0x58, 0x3c, 0x03, 0x89, 0xfc, 0x3d,
  0x75, 0x84, 0x39, 0xbe, 0xe8, 0xfe, 0xcf, 0x3d, 0xf0, 0x8c, 0x06, 0xbe,
  0xd2, 0x0e, 0xf0, 0xbc, 0x82, 0xbd, 0x9d, 0x3f, 0xb4, 0x3c, 0xb2, 0x3d,
  0x07, 0xe4, 0x73, 0xbe, 0x9e, 0x83, 0xc7, 0x3c, 0x59, 0x22, 0x02, 0xbd,
  0xee, 0x5e, 0x4f, 0x3b, 0x10, 0xed, 0x50, 0x3d, 0x0c, 0xe0, 0xde, 0xbd,
  0x14, 0xd0, 0x92, 0x3e, 0xe6, 0xa1, 0xf0, 0x3d, 0xd9, 0x42, 0x8b, 0xbd,
  0xef, 0xe8, 0x94, 0x3c, 0x13, 0xfc, 0x60, 0xbc, 0xd6, 0x40, 0x5f, 0x3d,
  0x5f, 0xed, 0xbe, 0xbe, 0x5d, 0x09, 0x6d, 0xbc, 0x29, 0xa1, 0xf0, 0x3e,
  0xc1, 0x3d, 0x28, 0xbe, 0x9b, 0x72, 0x00, 0x3e, 0x3d, 0xe7, 0xf1, 0xbd,
  0xc1, 0xa3, 0x80, 0xbe, 0x19, 0x2f, 0x9c, 0xbb, 0x71, 0x88, 0x5b, 0xbe,
  0x32, 0x0e, 0xa8, 0x3d, 0xd3, 0x8a, 0x9c, 0x3c, 0xa3, 0x39, 0x9f, 0xbd,
  0xb0, 0x6c, 0x98, 0x3d, 0x16, 0x66, 0x81, 0xbb, 0x0d, 0x84, 0x97, 0x3d,
  0xe8, 0x96, 0x07, 0x3d, 0x0e, 0xe9, 0xb1, 0xbe, 0xc9, 0x12, 0xb5, 0x3c,
  0x39, 0x74, 0x03, 0x3f, 0xa3, 0x2f, 0x33, 0x3e, 0x57, 0xcc, 0xc7, 0x3c,
  0x6b, 0xdd, 0x17, 0xbe, 0xee, 0xfb, 0x1a, 0xbe, 0x36, 0xe8, 0x24, 0xbd,
  0xf3, 0xf1, 0x0d, 0xbe, 0x98, 0xab, 0xc8, 0xbc, 0x86, 0xe4, 0xa3, 0x3e,
  0x8c, 0x13, 0x6d, 0x3d, 0x93, 0x9e, 0xff, 0xbd, 0x45, 0xd0, 0xf4, 0xbd,
  0xc8, 0xfc, 0xa7, 0xbd, 0xe4, 0x08, 0x40, 0xbe, 0x58, 0x30, 0xf0, 0xbe,
  0xb0, 0x42, 0x47, 0xbe, 0x9f, 0x2d, 0x3a, 0x3f, 0x6e, 0x20, 0xed, 0x3d,
  0x9a, 0xe5, 0xf4, 0x3c, 0xa3, 0xaf, 0x1b, 0xbe, 0x4d, 0x20, 0x93, 0xbc,
  0xbc, 0x5c, 0x23, 0xbe, 0xac, 0xdf, 0x5e, 0xbc, 0xab, 0x2f, 0x4d, 0xbe,
  0x00, 0xa1, 0xaa, 0xbc, 0x0a, 0x09, 0x33, 0xbe, 0xc4, 0xab, 0xa4, 0xbc,
  0xb6, 0x01, 0x94, 0xbd, 0xff, 0x59, 0x8b, 0xbe, 0x01, 0xf5, 0x23, 0x3d,
  0x4c, 0xea, 0xec, 0xbe, 0xa6, 0x25, 0x2b, 0xbe, 0xd3, 0x17, 0xe2, 0x3e,
  0x36, 0xce, 0x12, 0xbd, 0x3b, 0x04, 0xdd, 0xbc, 0xdc, 0x4d, 0x23, 0xbe,
  0x84, 0x55, 0x9f, 0xbe, 0xf8, 0x0e, 0xab, 0xbd, 0x99, 0x23, 0x8d, 0xbe,
  0x01, 0xdb, 0x3c, 0xbd, 0x2f, 0xca, 0xe2, 0xbe, 0xed, 0x9b, 0x16, 0xbd,
  0xff, 0xb1, 0x48, 0xbd, 0x6f, 0x52, 0x49, 0x3b, 0xdb, 0xe2, 0xf9, 0xbe,
  0x10, 0xf8, 0x51, 0xbe, 0xd4, 0x8e, 0x3f, 0x3d, 0xb5, 0xcc, 0x09, 0xbf,
  0xeb, 0x96, 0xd1, 0xbc, 0x5e, 0xc8, 0x26, 0xbf, 0x7f, 0x05, 0x05, 0x3e,
  0xff, 0x13, 0x04, 0xbe, 0x2b, 0x1a, 0xf5, 0xbe, 0x5b, 0x4a, 0xfc, 0x3d,
  0xd7, 0x4f, 0x33, 0x3e, 0x6b, 0x6f, 0x14, 0xbe, 0xbd, 0x4b, 0xea, 0xbe,
  0xc4, 0x08, 0x6b, 0x3e, 0xe1, 0x99, 0x1f, 0x3e, 0x80, 0x41, 0xda, 0x3d,
  0x25, 0xd4, 0xd6, 0x3d, 0x07, 0x0c, 0xc2, 0x39, 0x3b, 0x08, 0x3a, 0x3d,
  0xe4, 0xaa, 0xa0, 0x3e, 0x54, 0x11, 0x14, 0x3e, 0x56, 0x32, 0x6b, 0xbe,
  0x12, 0xaf, 0x54, 0x3e, 0xca, 0xbf, 0xcb, 0xbe, 0x45, 0x0a, 0x47, 0xbe,
  0x51, 0x91, 0x08, 0x3e, 0x51, 0x34, 0x40, 0x3e, 0x7f, 0xa9, 0x01, 0x3d,
  0x2c, 0xf9, 0xd5, 0xbb, 0xde, 0x86, 0xa0, 0x3e, 0x80, 0xc6, 0xca, 0xbd,
  0x0f, 0x02, 0xca, 0x3d, 0xca, 0xe7, 0xb2, 0xbd, 0x15, 0xdf, 0x80, 0x3e,
  0x74, 0xd1, 0xc4, 0xbc, 0xc8, 0x81, 0x4a, 0x3e, 0x45, 0x7b, 0x9e, 0xbd,
  0x1e, 0xf2, 0x65, 0xbe, 0x38, 0xb3, 0xb8, 0xbc, 0xa4, 0x0d, 0xb0, 0xbe,
  0x80, 0xa0, 0x4b, 0xbd, 0xd0, 0x11, 0x95, 0x3e, 0x67, 0x40, 0xca, 0x3d,
  0xe9, 0x1a, 0xa4, 0xbe, 0x14, 0x1a, 0xca, 0x3c, 0xf9, 0x79, 0x31, 0x3e,
  0xe2, 0x22, 0x9f, 0xbd, 0x31, 0xbd, 0xeb, 0x3c, 0x53, 0x39, 0xb2, 0x3c,
  0xc6, 0xad, 0xd2, 0x3d, 0xd1, 0x68, 0x45, 0xbc, 0xf3, 0x53, 0x36, 0x3c,
  0x7b, 0x81, 0xd9, 0x3c, 0x99, 0xbc, 0xe5, 0xbe, 0x46, 0xf1, 0xf1, 0x3c,
  0xe6, 0xfd, 0xef, 0x3c, 0x27, 0xfe, 0x49, 0xbe, 0xf5, 0x30, 0x98, 0x3d,
  0x4e, 0xbe, 0x19, 0xbe, 0xcd, 0xa6, 0x8a, 0xbe, 0xa3, 0x7e, 0x09, 0xbe,
  0x06, 0x2d, 0xc0, 0xbe, 0x39, 0xfe, 0x2b, 0xbc, 0xf1, 0x2a, 0x97, 0x3b,
  0x71, 0xda, 0xb5, 0xbb, 0x3b, 0x30, 0x29, 0xbe, 0xc3, 0x00, 0x55, 0xbd,
  0xc4, 0x86, 0x7a, 0x3c, 0x32, 0x2e, 0x2a, 0xbe, 0xc9, 0x0d, 0x28, 0xbf,
  0xa4, 0x40, 0xff, 0x3b, 0xc6, 0xc0, 0xe6, 0xbc, 0x98, 0x6f, 0x8f, 0xbd,
  0x2a, 0x0e, 0x87, 0xbd, 0xfc, 0x1d, 0xe4, 0xbd, 0x13, 0x8e, 0x13, 0xbe,
  0xd1, 0x9e, 0xae, 0xbe, 0xc9, 0xb6, 0x64, 0xbe, 0x2d, 0x5e, 0xdb, 0x3d,
  0x36, 0x9d, 0x13, 0xbc, 0x44, 0xc7, 0xb7, 0xbc, 0x44, 0x37, 0x33, 0xbe,
  0x7b, 0xf0, 0x50, 0xbd, 0x3a, 0xa1, 0x8d, 0xbe, 0x3c, 0x36, 0xa3, 0xbe,
  0x7b, 0x44, 0x7f, 0xbe, 0x07, 0x8d, 0x1f, 0x3e, 0x94, 0x0c, 0xa7, 0xbe,
  0x4c, 0xd4, 0x4b, 0xbe, 0x3e, 0xc4, 0xe7, 0x3d, 0xa5, 0x7a, 0x0e, 0x3e,
  0x42, 0x56, 0x99, 0xbd, 0x1e, 0x2d, 0xf5, 0xbe, 0x71, 0xd1, 0xc7, 0x3d,
  0x56, 0x3f, 0x4e, 0x3d, 0xd8, 0x22, 0xb0, 0x3d, 0x1c, 0xee, 0xff, 0x3c,
  0x96, 0x82, 0xcf, 0x3d, 0x41, 0xd8, 0xee, 0xbc, 0xae, 0x57, 0xe6, 0xbd,
  0x4b, 0x3e, 0x76, 0xbd, 0xc6, 0xe7, 0x01, 0xbf, 0x2b, 0x3c, 0xa4, 0x3d,
  0x3d, 0x72, 0x50, 0x3d, 0x03, 0xd9, 0xf5, 0xbd, 0xab, 0xb6, 0x98, 0x3e,
  0x7f, 0x10, 0x36, 0x3b, 0xe5, 0xb3, 0x3c, 0xbe, 0x5b, 0x3a, 0x34, 0xbf,
  0x6c, 0x6c, 0x26, 0xbe, 0xe9, 0xd7, 0x2d, 0xbc, 0x83, 0x30, 0xa1, 0xbe,
  0xcf, 0x52, 0xe5, 0xbe, 0xbc, 0x7f, 0xd9, 0xbc, 0x85, 0x46, 0xa6, 0x3d,
  0xe9, 0x55, 0x30, 0xbf, 0x60, 0xa9, 0x26, 0xbe, 0x78, 0xce, 0xb7, 0xbe,
  0xc7, 0x8e, 0x07, 0x3e, 0x53, 0xe3, 0xcb, 0xbd, 0xe0, 0x1a, 0x68, 0xbe,
  0x3c, 0xdb, 0x0c, 0x3d, 0x0b, 0x8e, 0x1f, 0x3d, 0xba, 0x5d, 0xd1, 0xbd,
  0x7f, 0xc8, 0xe4, 0xbe, 0x74, 0x18, 0xb4, 0x3e, 0xfb, 0x40, 0xb5, 0x3d,
  0x6e, 0xa2, 0x8f, 0xbd, 0x9c, 0x9f, 0xfa, 0x3b, 0x80, 0x0e, 0x28, 0xbe,
  0x0e, 0x32, 0x36, 0x3d, 0x5c, 0x80, 0x21, 0x3e, 0xe0, 0x5a, 0x14, 0xbd,
  0xb8, 0xfa, 0x0a, 0xbe, 0x71, 0xee, 0x0a, 0x3e, 0x97, 0x75, 0xa7, 0xbe,
  0x56, 0x5d, 0x8a, 0xbd, 0x16, 0xbd, 0xd6, 0x3d, 0x12, 0xea, 0x87, 0x3d,
  0xbd, 0x39, 0xce, 0xbd, 0x31, 0x35, 0x63, 0xbe, 0x5a, 0xad, 0x94, 0x3e,
  0x1e, 0x5e, 0xf9, 0x3c, 0x31, 0xad, 0xc8, 0xbd, 0x8f, 0x81, 0x8e, 0xbc,
  0x7c, 0x07, 0x06, 0x3e, 0xc5, 0xf8, 0x34, 0x3d, 0xfb, 0xf3, 0x71, 0x3d,
  0x1a, 0xbe, 0xb0, 0x3b, 0x4f, 0xa3, 0x07, 0xbe, 0x1b, 0x2d, 0x7a, 0x3e,
  0xb1, 0x0e, 0x92, 0xbd, 0x5b, 0x7a, 0x80, 0xbe, 0xdc, 0xa0, 0x09, 0x3e,
  0x47, 0x4f, 0x21, 0xbd, 0xed, 0x70, 0xd1, 0xbe, 0xdb, 0xa5, 0x08, 0xbe,
  0xc2, 0x24, 0x97, 0x3e, 0x80, 0x5f, 0x17, 0xbe, 0xed, 0xd9, 0x9b, 0x3c,
  0x9e, 0xc6, 0x75, 0x3d, 0x89, 0x8e, 0xfc, 0xbd, 0xb4, 0x30, 0x5c, 0x3b,
  0x6f, 0x3a, 0x02, 0x3d, 0xbc, 0x40, 0xa9, 0xbd, 0xa9, 0x4b, 0xbf, 0xbe,
  0xe2, 0x47, 0x12, 0x3d, 0x42, 0x4b, 0xcc, 0xbd, 0xdd, 0x4f, 0xb3, 0xbd,
  0x6c, 0x57, 0xe9, 0x3d, 0x5a, 0x28, 0x29, 0xbd, 0xa3, 0xb0, 0x2f, 0xbe,
  0xfb, 0x55, 0x52, 0xbe, 0xe5, 0x89, 0xb2, 0xbc, 0x87, 0x04, 0xd2, 0xbc,
  0x12, 0x86, 0x97, 0xbe, 0x06, 0x7b, 0x96, 0xbc, 0x7f, 0x5f, 0x46, 0xbe,
  0x2f, 0xdc, 0x7d, 0xbb, 0xe6, 0xc5, 0x84, 0xbe, 0xca, 0x9e, 0xa4, 0xbe,
  0x4a, 0xea, 0x3b, 0xbf, 0xb9, 0xc1, 0x74, 0x3d, 0x56, 0x69, 0x75, 0xbd,
  0xfc, 0xa6, 0xfa, 0xbd, 0x96, 0x00, 0x5f, 0xbb, 0x5a, 0x8c, 0x22, 0xbe,
  0x3b, 0x4a, 0x0b, 0xbe, 0x68, 0x8b, 0x84, 0xbe, 0x35, 0xa6, 0x24, 0xbe,
  0x04, 0x23, 0xe5, 0x3b, 0x06, 0x29, 0xb5, 0xbe, 0xc5, 0x2b, 0x8c, 0xbd,
  0xd9, 0x53, 0x0a, 0xbe, 0xf2, 0x13, 0x78, 0xbd, 0x4e, 0x9f, 0xe6, 0xbe,
  0xcb, 0xf2, 0xd3, 0xbe, 0xb5, 0x46, 0x2a, 0xbf, 0x2d, 0x4c, 0x1b, 0x3e,
  0x0e, 0xf3, 0x6f, 0xbe, 0x43, 0x37, 0x8a, 0xbe, 0xb6, 0x24, 0xe3, 0x3c,
  0x58, 0xe8, 0x14, 0x3d, 0xd0, 0x11, 0xcc, 0xbc, 0x5a, 0x2a, 0x5d, 0xbe,
  0xd4, 0xfd, 0x83, 0x3d, 0x1f, 0x67, 0x9e, 0x3c, 0x34, 0x4e, 0x6c, 0x3d,
  0x8f, 0xe7, 0x0a, 0x3c, 0x67, 0xdc, 0xff, 0xbb, 0x59, 0x70, 0x44, 0x3d,
  0x0d, 0x9b, 0x05, 0x3d, 0x45, 0x9d, 0x11, 0xbe, 0xd7, 0x44, 0xda, 0xbd,
  0xa0, 0xf5, 0xb7, 0x3d, 0x29, 0x60, 0x4d, 0xbb, 0xcb, 0x7b, 0xe0, 0xbc,
  0xd3, 0xdd, 0x69, 0x3d, 0x69, 0x04, 0xb8, 0x3d, 0x05, 0xfd, 0x6b, 0xbe,
  0xb5, 0x04, 0x40, 0xbd, 0x7e, 0x5f, 0x9f, 0xbd, 0x72, 0x1c, 0xd0, 0x3c,
  0xea, 0xf9, 0xc7, 0xbd, 0x9b, 0x68, 0x41, 0xbe, 0x6b, 0x7a, 0x9b, 0xbd,
  0x3f, 0xef, 0xcf, 0xbe, 0xa9, 0xc4, 0x55, 0xbd, 0x7e, 0x8f, 0x03, 0x3f,
  0xae, 0x2b, 0x89, 0x3d, 0x16, 0x0f, 0xe8, 0xbd, 0xb2, 0x3b, 0x8a, 0x3d,
  0x88, 0x74, 0x46, 0xbe, 0x3d, 0xaf, 0x1c, 0xbe, 0x95, 0x69, 0xa5, 0xbd,
  0x67, 0xca, 0x82, 0xbe, 0x0d, 0xd4, 0x9c, 0x3d, 0xfc, 0x91, 0xaa, 0xbd,
  0x70, 0x9c, 0x4c, 0xbe, 0x7e, 0x14, 0x41, 0x3e, 0x06, 0x1b, 0xcf, 0x3d,
  0xcf, 0x32, 0x39, 0x3e, 0x61, 0xf5, 0x7f, 0xbe, 0x6f, 0xa2, 0xd0, 0xbd,
  0x22, 0x90, 0xf8, 0x3e, 0x58, 0x5f, 0x0c, 0xbe, 0x1a, 0xc8, 0xf8, 0xbd,
  0x6a, 0x8a, 0x3f, 0x3d, 0x4a, 0x6c, 0x75, 0x3d, 0xfd, 0x1c, 0xcd, 0x3d,
  0x86, 0x8c, 0xa6, 0xbd, 0x2e, 0x54, 0x48, 0xba, 0xaf, 0x21, 0xe1, 0x3d,
  0xb1, 0x7e, 0x3d, 0x3d, 0xee, 0x5c, 0xdf, 0x3d, 0x25, 0x9d, 0x11, 0xbe,
  0xac, 0xab, 0x40, 0xbe, 0x10, 0xd4, 0x3d, 0xbe, 0x6e, 0xac, 0xa1, 0xbe,
  0x40, 0x1e, 0xb0, 0x3d, 0x99, 0xcd, 0xa2, 0x3f, 0x35, 0x26, 0xb5, 0xbd,
  0x8c, 0x57, 0x0d, 0x3d, 0xd1, 0x0c, 0x90, 0xbe, 0xa1, 0xc2, 0x7d, 0xbe,
  0x56, 0xdb, 0x22, 0xbe, 0x48, 0x05, 0xd4, 0xbd, 0x96, 0x81, 0xac, 0x3c,
  0x79, 0x69, 0x1d, 0x3e, 0x38, 0x92, 0x14, 0xbb, 0x88, 0x9a, 0x2c, 0x3d,
  0xd3, 0xe1, 0xf7, 0x3c, 0x83, 0xd7, 0x3d, 0x3d, 0xc3, 0xfc, 0x0b, 0x3e,
  0x96, 0xb5, 0x8f, 0xbe, 0x20, 0x5e, 0xa5, 0x3d, 0xe0, 0x30, 0xcc, 0x3e,
  0x85, 0x25, 0x88, 0x3d, 0xa9, 0x32, 0xa1, 0x3d, 0x1e, 0xef, 0x7b, 0x3d,
  0x75, 0xd1, 0xaa, 0xbd, 0x63, 0x52, 0x60, 0x3d, 0x15, 0x2e, 0x0a, 0x3d,
  0x77, 0x09, 0xfb, 0xba, 0x3e, 0x4e, 0xa8, 0x3d, 0xc1, 0x47, 0xda, 0xbd,
  0x63, 0x43, 0xb1, 0xbd, 0x86, 0xbd, 0xbd, 0x3d, 0xf7, 0x06, 0x3a, 0x3e,
  0x47, 0x62, 0xa7, 0xbc, 0xc9, 0x16, 0xcf, 0xbe, 0x3f, 0xee, 0x0b, 0xbe,
  0xe4, 0x7f, 0xd8, 0x3e, 0x99, 0x74, 0xe4, 0x3d, 0xcd, 0x21, 0xa6, 0x3d,
  0x65, 0xad, 0x12, 0xbe, 0x02, 0x5d, 0x0d, 0xbe, 0x2c, 0x9e, 0x1d, 0xbe,
  0xa4, 0x01, 0xce, 0xbd, 0x43, 0xe3, 0x93, 0xbc, 0x91, 0x47, 0xb5, 0x3e,
  0x95, 0xb9, 0x7b, 0x3a, 0x33, 0x3e, 0xf9, 0xbb, 0xb5, 0x9e, 0xd6, 0x3d,
  0x88, 0x16, 0x54, 0xbe, 0x06, 0xcb, 0xaa, 0xbc, 0x7a, 0xcd, 0xbf, 0xbe,
  0x75, 0xfd, 0x62, 0xbe, 0x86, 0x6a, 0x0e, 0x3f, 0x11, 0x07, 0x40, 0x3d,
  0x8c, 0xf2, 0x30, 0xbc, 0x05, 0x0d, 0x87, 0xbe, 0xf6, 0xd5, 0x19, 0xbe,
  0xd4, 0xcf, 0x65, 0x3d, 0x42, 0xf2, 0xdc, 0xba, 0x55, 0xd2, 0x8e, 0xbe,
  0x29, 0xb1, 0x6c, 0x3d, 0xfc, 0x92, 0x0f, 0xbe, 0xe5, 0x03, 0x54, 0xbd,
  0xab, 0x79, 0x28, 0xbe, 0xbf, 0xab, 0x93, 0xbe, 0x4d, 0x5d, 0x4e, 0xbe,
  0x3e, 0x69, 0xad, 0xbe, 0x6e, 0x11, 0x13, 0xbe, 0xe3, 0x49, 0x1b, 0x3f,
  0x26, 0x8e, 0xc7, 0xbd, 0x1e, 0xf0, 0x34, 0xbe, 0xb9, 0x94, 0x89, 0xbe,
  0x73, 0xd3, 0xc7, 0xbe, 0x72, 0x9f, 0x8c, 0xbd, 0x97, 0x09, 0x3f, 0xbe,
  0x5b, 0xa5, 0x18, 0xbe, 0xd1, 0x73, 0x8c, 0xbd, 0x7d, 0x94, 0xa5, 0xbd,
  0x8c, 0x23, 0x35, 0xbe, 0x31, 0x98, 0xd8, 0x3d, 0x08, 0x6b, 0x5e, 0xbd,
  0x69, 0x7a, 0x12, 0x3e, 0x88, 0x9f, 0x06, 0xbe, 0x3d, 0xec, 0xf7, 0xbd,
  0xc2, 0xe4, 0x01, 0xbe, 0xfe, 0xfa, 0x01, 0xbe, 0xb5, 0xcb, 0x13, 0xbe,
  0x76, 0x88, 0x4e, 0xbd, 0xe1, 0x91, 0xb0, 0xbd, 0x96, 0x1a, 0xe6, 0x3d,
  0xab, 0x63, 0xfc, 0xbd, 0x6a, 0x96, 0x8f, 0xbd, 0xcd, 0x6f, 0xd4, 0x3d,
  0x71, 0x4d, 0x07, 0xbe, 0xb0, 0x30, 0x53, 0x3d, 0xc1, 0xf5, 0x37, 0xbd,
  0x2c, 0xbf, 0x2f, 0xbe, 0xb8, 0xcd, 0x12, 0x3e, 0x6d, 0x3a, 0x87, 0xbe,
  0x15, 0x98, 0x99, 0xbd, 0x95, 0xf8, 0x96, 0x3d, 0x37, 0x8a, 0x0b, 0xbd,
  0x3b, 0xce, 0x4e, 0x3d, 0x86, 0xe3, 0x3c, 0xbe, 0x40, 0x3a, 0x87, 0xbe,
  0xb0, 0xd7, 0x7f, 0xbe, 0xa2, 0x4c, 0x03, 0xbb, 0x2a, 0x42, 0xf9, 0x3d,
  0xf4, 0x13, 0x53, 0x3d, 0x03, 0x57, 0x86, 0xbd, 0x30, 0xed, 0xef, 0xbd,
  0xfe, 0xa8, 0xc0, 0xbb, 0x35, 0x6d, 0x7b, 0x3c, 0x7b, 0x3e, 0x6b, 0xbe,
  0x09, 0x3d, 0x80, 0xbd, 0xc3, 0x6c, 0x32, 0xbd, 0x9e, 0xcc, 0xaa, 0xbd,
  0xa7, 0x61, 0x5b, 0xbe, 0x7c, 0xb3, 0xa5, 0xbb, 0x4e, 0x72, 0x57, 0xbe,
  0xc1, 0xb0, 0x7a, 0xbe, 0x7a, 0xe5, 0x4f, 0xbe, 0xe5, 0x8b, 0xd1, 0x3d,
  0x96, 0x49, 0x34, 0x3d, 0xeb, 0xf1, 0x06, 0xbe, 0x1d, 0xaa, 0xc6, 0xbd,
  0x33, 0xee, 0x2e, 0xbe, 0xb6, 0x28, 0x5c, 0xbe, 0xf7, 0x89, 0x21, 0x3e,
  0x71, 0x31, 0x36, 0xbe, 0x52, 0x0d, 0xa8, 0xbe, 0x7b, 0xde, 0xaa, 0x3c,
  0xaa, 0xf8, 0x2a, 0x3d, 0xca, 0xa6, 0x11, 0x3e, 0x49, 0xd0, 0x04, 0xbe,
  0x00, 0x35, 0xd0, 0x3c, 0x33, 0x8e, 0x0b, 0xbe, 0xfb, 0xc1, 0x70, 0x3d,
  0xf2, 0xc1, 0x15, 0x3e, 0xeb, 0x20, 0x0f, 0x3e, 0xe2, 0x6b, 0x61, 0xbe,
  0xd2, 0x3f, 0x13, 0xbe, 0xf6, 0x1c, 0x3e, 0xbe, 0x50, 0x24, 0x20, 0xbb,
  0xee, 0x6f, 0x68, 0x3d, 0x79, 0x28, 0x35, 0x3e, 0xd5, 0x95, 0xcf, 0xbd,
  0xdb, 0x59, 0x2b, 0x3e, 0x17, 0x1d, 0xc7, 0xbd, 0x0a, 0xc1, 0x34, 0xbd,
  0x59, 0xdd, 0x7c, 0xbd, 0x06, 0x1e, 0xe5, 0x3d, 0x31, 0xc8, 0x01, 0xbe,
  0x66, 0x22, 0xf1, 0x3d, 0x69, 0xa1, 0x48, 0xbe, 0x56, 0x4d, 0x52, 0xbd,
  0x06, 0x2e, 0x7c, 0xbe, 0x33, 0xba, 0xe5, 0x3c, 0xad, 0xcc, 0xe3, 0xbc,
  0x5b, 0x11, 0x60, 0xbe, 0xe9, 0x0e, 0x82, 0xbe, 0xa9, 0x01, 0x0a, 0x3e,
  0x89, 0x2f, 0xa0, 0xbe, 0x32, 0x03, 0xd6, 0xbd, 0xd0, 0x73, 0xd6, 0x3b,
  0x21, 0xb9, 0xf5, 0xbd, 0xd5, 0xf6, 0x9a, 0xbd, 0x3c, 0xa9, 0x4c, 0xbd,
  0xbc, 0xbd, 0x8a, 0xbe, 0xaf, 0x10, 0x4d, 0xbe, 0xc5, 0x75, 0xc2, 0x3d,
  0x14, 0xb6, 0x92, 0xbe, 0xe8, 0x9f, 0x10, 0xbe, 0xa0, 0x55, 0x5c, 0xbd,
  0xb3, 0xd0, 0xc9, 0x3c, 0xdc, 0x44, 0x33, 0x3d, 0x21, 0x9d, 0xde, 0xbd,
  0xb1, 0xbe, 0x11, 0x3e, 0x03, 0xef, 0x65, 0xbd, 0x7f, 0x71, 0x69, 0x3d,
  0x88, 0x35, 0x3e, 0x3d, 0x7a, 0x3b, 0x50, 0xbd, 0x00, 0xd0, 0x45, 0xbe,
  0x4d, 0x6a, 0xc3, 0xbd, 0x04, 0x71, 0x83, 0xbe, 0x30, 0xeb, 0xff, 0xbd,
  0x0d, 0xdc, 0x22, 0xbe, 0x73, 0x81, 0x8f, 0xbe, 0x87, 0x79, 0x7a, 0xbe,
  0xc7, 0x29, 0xe3, 0xba, 0x8f, 0xed, 0xb3, 0x3d, 0x2b, 0x1a, 0x68, 0xbd,
  0xee, 0x44, 0x7d, 0xbe, 0xb4, 0x3b, 0x43, 0x3e, 0x87, 0x83, 0x95, 0xbe,
  0xb3, 0x12, 0xe1, 0x3d, 0x13, 0xeb, 0x9c, 0xbe, 0x6e, 0x65, 0xfa, 0xbd,
  0x2b, 0x88, 0xaf, 0xbd, 0x99, 0xc7, 0x1f, 0xbe, 0x28, 0x4c, 0x6a, 0xbe,
  0x8c, 0x4b, 0xc6, 0x3d, 0xf6, 0x38, 0x1b, 0xbe, 0xcb, 0x9e, 0x21, 0xbe,
  0x5d, 0x91, 0x51, 0x3d, 0x02, 0x9e, 0x7b, 0x3d, 0x6c, 0x3d, 0xd7, 0x3d,
  0x30, 0xbb, 0x25, 0x3e, 0x63, 0x3c, 0x9d, 0xbe, 0x61, 0xf1, 0x42, 0xbe,
  0x82, 0xd0, 0x12, 0x3d, 0xc1, 0x5d, 0xc9, 0xbd, 0x93, 0x45, 0x47, 0xbd,
  0x67, 0xe1, 0x9b, 0x3b, 0x89, 0x38, 0x3f, 0xbc, 0x22, 0x04, 0xb8, 0x3d,
  0xe0, 0xa7, 0xbe, 0xbe, 0xff, 0x8a, 0xda, 0x3d, 0x7c, 0x30, 0xa5, 0xbe,
  0xbf, 0xae, 0x44, 0xbd, 0x0a, 0x31, 0x01, 0xbe, 0x8f, 0x43, 0xad, 0x3d,
  0xe7, 0xd1, 0x05, 0x3d, 0x26, 0x3a, 0xb7, 0xbd, 0x12, 0x9a, 0x5c, 0xbe,
  0x61, 0xbd, 0xa4, 0xbd, 0x83, 0xc9, 0x20, 0xbe, 0xdc, 0xc3, 0xe4, 0xbd,
  0x75, 0x8d, 0x0a, 0x3e, 0x18, 0xb0, 0x0e, 0xbd, 0x24, 0xbf, 0x3a, 0x3e,
  0x63, 0x01, 0x16, 0xbe, 0x08, 0x3e, 0xcd, 0xbd, 0xd2, 0x70, 0x76, 0x3e,
  0x15, 0x11, 0x2f, 0x3e, 0xbe, 0x49, 0x27, 0x3e, 0xa6, 0xd5, 0x81, 0xbd,
  0x5c, 0x4d, 0x40, 0x3e, 0xa9, 0x72, 0x60, 0x3d, 0x86, 0xf3, 0xec, 0x3d,
  0x75, 0x34, 0x37, 0x3d, 0x98, 0x78, 0xd2, 0x3c, 0x55, 0xbb, 0x08, 0xbe,
  0x7d, 0x62, 0x4f, 0x3d, 0xb5, 0xb2, 0x86, 0xbd, 0xb0, 0x0c, 0x05, 0x3c,
  0x9c, 0x68, 0xc2, 0x3c, 0xe2, 0x8d, 0x79, 0xbd, 0x89, 0x28, 0x0b, 0xbe,
  0x53, 0x6f, 0x23, 0xbe, 0x41, 0xa7, 0x4e, 0xbd, 0x84, 0x5f, 0x3e, 0xbe,
  0x04, 0x6b, 0x66, 0xbe, 0xc0, 0x8d, 0x87, 0x3d, 0xfc, 0xbc, 0x51, 0x3d,
  0x19, 0xe5, 0xc0, 0xbc, 0x55, 0xe5, 0x2a, 0x3c, 0x31, 0x8b, 0x35, 0xbd,
  0x89, 0x6f, 0x2a, 0xbe, 0xdb, 0x70, 0x19, 0x3e, 0x11, 0x31, 0x46, 0xbe,
  0x13, 0xdf, 0x43, 0x3d, 0xf9, 0x77, 0x0b, 0x3d, 0x5f, 0xbd, 0x98, 0xbd,
  0x95, 0x1a, 0x60, 0xbe, 0x8f, 0x8c, 0xd7, 0x3d, 0xdb, 0xb5, 0x81, 0x3d,
  0x43, 0x1e, 0xe9, 0xbd, 0x78, 0xfb, 0x13, 0xbe, 0xf5, 0x90, 0x0e, 0xbe,
  0x8b, 0xe3, 0x8a, 0xbe, 0x25, 0xca, 0x2c, 0xbc, 0xbf, 0x3f, 0xd6, 0xbd,
  0x29, 0x91, 0x15, 0x3e, 0xf6, 0x44, 0x23, 0xbd, 0xad, 0x44, 0x68, 0x3d,
  0x2f, 0x1c, 0xb5, 0x3d, 0x35, 0x50, 0x85, 0xbc, 0x55, 0x85, 0x16, 0xbe,
  0x01, 0x5a, 0xc9, 0x3d, 0x67, 0x2d, 0x9d, 0xbe, 0x3f, 0x6d, 0x04, 0xbe,
  0x60, 0x7a, 0x35, 0x3c, 0x57, 0x4c, 0xc5, 0xbe, 0x29, 0x88, 0xec, 0xbc,
  0x23, 0x7b, 0x17, 0x3d, 0x8f, 0x68, 0xde, 0xbd, 0x8f, 0x82, 0x01, 0xbd,
  0xd5, 0xb8, 0x5e, 0x3c, 0xbc, 0x78, 0x75, 0x3b, 0xd0, 0x31, 0x2a, 0xbe,
  0x3e, 0xa2, 0x0d, 0x3d, 0xa0, 0xbf, 0x22, 0xbe, 0x21, 0x1f, 0x12, 0xbe,
  0x79, 0x50, 0x22, 0x3d, 0x41, 0x7f, 0xe4, 0xbd, 0x34, 0xa1, 0x5c, 0xbe,
  0x15, 0x61, 0xec, 0xbd, 0x82, 0x91, 0x0a, 0xbd, 0x00, 0xf7, 0xd0, 0xbd,
  0x8f, 0x3c, 0xef, 0xbc, 0x17, 0xc0, 0x2a, 0x3e, 0xdb, 0x5d, 0xb3, 0xbd,
  0x5e, 0x80, 0xa6, 0x3e, 0x05, 0x5b, 0xde, 0x3d, 0x0f, 0x26, 0xf7, 0x3d,
  0xa2, 0xa0, 0x05, 0xbd, 0x93, 0x70, 0x5e, 0x3e, 0x82, 0x09, 0x08, 0x3d,
  0xeb, 0x74, 0x5d, 0x3d, 0xc0, 0xe6, 0x32, 0xbe, 0xda, 0x62, 0x8b, 0x3e,
  0x70, 0xc1, 0xaf, 0x3d, 0x0a, 0xb7, 0x04, 0xbe, 0xc7, 0x3d, 0x20, 0xbe,
  0x55, 0xa6, 0xfc, 0xbd, 0xb6, 0xe3, 0xce, 0xbb, 0x69, 0xcd, 0x48, 0xbe,
  0xf8, 0x79, 0xeb, 0x3c, 0xa7, 0x5f, 0x27, 0xbd, 0x8b, 0xf1, 0x9a, 0xbc,
  0xab, 0x54, 0xe5, 0x3b, 0xc0, 0xb8, 0xb4, 0x3c, 0xf1, 0xcb, 0xa1, 0xbc,
  0x1f, 0x07, 0x9a, 0x3c, 0x03, 0x3b, 0x11, 0x3e, 0x20, 0x1f, 0x7f, 0xbd,
  0xf3, 0x3e, 0x44, 0x3e, 0x36, 0x6a, 0x6b, 0x3d, 0xb7, 0xb6, 0xab, 0xbe,
  0x9c, 0x09, 0xc8, 0xbd, 0xd0, 0xed, 0x60, 0x3c, 0xa0, 0x3c, 0xd4, 0xbc,
  0xcc, 0xf1, 0x2d, 0xbc, 0x2f, 0x5f, 0xa2, 0xbe, 0xc1, 0x11, 0x0c, 0xbf,
  0x37, 0x5b, 0x25, 0xbc, 0xde, 0x69, 0x66, 0x3e, 0x89, 0x1d, 0xc0, 0xbc,
  0xb7, 0xad, 0x42, 0xbe, 0x97, 0xf4, 0x10, 0xbe, 0xfd, 0x92, 0x1e, 0x3d,
  0xef, 0x89, 0x52, 0xbd, 0x9a, 0xf0, 0x4d, 0xbe, 0x00, 0xee, 0xa6, 0xbd,
  0x4e, 0x1b, 0x86, 0xbe, 0x03, 0x95, 0x84, 0xbe, 0x6c, 0x78, 0x67, 0xbe,
  0x8c, 0x6a, 0x44, 0x3d, 0xba, 0xcf, 0xf0, 0x3d, 0x9d, 0xd7, 0x93, 0xbe,
  0xc9, 0x06, 0x88, 0xbc, 0x0e, 0x5f, 0x86, 0x3b, 0x84, 0xb2, 0x5c, 0x3e,
  0x76, 0x7d, 0xbb, 0xbb, 0x4c, 0xd0, 0x17, 0x3e, 0xcb, 0x53, 0x20, 0xbf,
  0x58, 0x73, 0xca, 0x3c, 0x57, 0x29, 0x0a, 0xbe, 0x78, 0xef, 0x86, 0xbe,
  0x44, 0x34, 0x33, 0xbd, 0x0f, 0xeb, 0x8e, 0xbd, 0x96, 0x1f, 0xc4, 0xbd,
  0xec, 0x3c, 0x18, 0xbd, 0x35, 0x38, 0x01, 0xbd, 0xe0, 0x2c, 0x94, 0x3d,
  0x7e, 0x4e, 0x67, 0xbe, 0x4d, 0x8c, 0xc6, 0xbd, 0xb2, 0x7e, 0xcc, 0x3c,
  0x71, 0xa7, 0xc4, 0x3d, 0x39, 0xe3, 0x6a, 0xbd, 0x28, 0x29, 0x2d, 0x3d,
  0xa4, 0x40, 0x09, 0xbf, 0x58, 0xfa, 0x2b, 0xba, 0x3f, 0xb8, 0x72, 0xbc,
  0x7a, 0xe1, 0x0f, 0xbe, 0x9f, 0xbb, 0x30, 0xbd, 0x52, 0x6d, 0xf8, 0xbd,
  0x52, 0x8e, 0xb6, 0x3c, 0x2a, 0xde, 0x8d, 0xbe, 0x99, 0xba, 0x8a, 0x3d,
  0xc3, 0x63, 0xb4, 0x3d, 0xfd, 0x3d, 0x6b, 0xbe, 0xd3, 0xed, 0xdc, 0xbe,
  0x54, 0x19, 0x78, 0xbd, 0x84, 0x58, 0xdb, 0x3d, 0x28, 0xcf, 0x59, 0xbd,
  0x99, 0xdf, 0x65, 0x3e, 0xaa, 0xb9, 0x84, 0x3e, 0x0d, 0x59, 0x1f, 0x3d,
  0x0e, 0x87, 0x86, 0xbe, 0xb8, 0x6a, 0x01, 0xbe, 0x55, 0x7f, 0x59, 0x3d,
  0x4f, 0xed, 0xd3, 0xbe, 0x97, 0x83, 0x41, 0xbe, 0x1c, 0x27, 0xa9, 0xbc,
  0x4a, 0xd9, 0xf6, 0xbd, 0xd9, 0xed, 0xd1, 0xbc, 0x5b, 0x42, 0xad, 0xb9,
  0x6f, 0x82, 0x53, 0x3d, 0x3a, 0x23, 0xdd, 0x3c, 0x8c, 0xa4, 0x97, 0x3d,
  0x8a, 0x7b, 0x19, 0x3d, 0x4b, 0xf4, 0xd6, 0x3d, 0x65, 0xd1, 0x84, 0x3e,
  0x70, 0xdd, 0xf4, 0xbb, 0x2a, 0xf9, 0xd4, 0xbc, 0x4b, 0x26, 0x5b, 0x3d,
  0x76, 0xaa, 0xc5, 0xba, 0xf1, 0x2f, 0x6f, 0xbd, 0xc0, 0xeb, 0x09, 0x3b,
  0x82, 0xed, 0x9d, 0x3e, 0xab, 0xba, 0x31, 0x3e, 0x2a, 0xdc, 0x26, 0xbc,
  0x71, 0xc2, 0x89, 0x3c, 0x8b, 0x72, 0x96, 0x3d, 0xa6, 0x35, 0x4b, 0xbe,
  0x14, 0x10, 0xb1, 0x3b, 0x45, 0x92, 0xc2, 0xbd, 0xf8, 0x02, 0x4c, 0xbc,
  0xbc, 0xed, 0x6c, 0x3e, 0xe5, 0x0f, 0x04, 0x3e, 0x52, 0xd5, 0x33, 0xbe,
  0x48, 0xc1, 0x73, 0xbe, 0x92, 0xad, 0x9b, 0xbe, 0xb1, 0x16, 0xc4, 0x3d,
  0xad, 0x61, 0x8e, 0x3d, 0x76, 0x27, 0x5f, 0x3e, 0x23, 0xe5, 0x3d, 0x3d,
  0xe9, 0xec, 0x82, 0xbd, 0x26, 0x6f, 0x7c, 0x3e, 0x93, 0x0d, 0x15, 0x3d,
  0xb4, 0x6d, 0x3a, 0xbd, 0x0e, 0x4f, 0xc0, 0x3d, 0xf0, 0xab, 0x4a, 0xbe,
  0x1f, 0x6e, 0x80, 0x3e, 0x6d, 0x74, 0xeb, 0x3e, 0x00, 0xe2, 0x55, 0xbe,
  0x85, 0xa6, 0x12, 0xbe, 0x6f, 0x35, 0x98, 0x3d, 0x2f, 0xa0, 0x44, 0xbe,
  0x8c, 0x06, 0x00, 0x3e, 0xcd, 0x00, 0x06, 0x3e, 0x37, 0x67, 0x58, 0xbb,
  0xe4, 0xa2, 0x54, 0x3c, 0xe2, 0x57, 0xbc, 0xbd, 0x30, 0x08, 0x80, 0x3e,
  0xe2, 0x86, 0x2d, 0x3e, 0x26, 0xaa, 0x18, 0xbe, 0x3f, 0x0f, 0x4d, 0xbe,
  0xf4, 0xa5, 0x55, 0xbd, 0x80, 0x9e, 0x58, 0x3e, 0x54, 0x12, 0x60, 0x3f,
  0xd7, 0xef, 0xa2, 0xbe, 0x24, 0x21, 0x5e, 0xbe, 0x3b, 0x78, 0x87, 0x3e,
  0x87, 0x02, 0x34, 0x3e, 0xe5, 0x03, 0xb6, 0xbd, 0xeb, 0xa5, 0x08, 0xbe,
  0x49, 0x7f, 0x54, 0x3e, 0x1f, 0x46, 0x16, 0x3e, 0xa9, 0x34, 0x5e, 0xbe,
  0x6e, 0x6d, 0xc8, 0x3e, 0xf6, 0x13, 0x5e, 0x3e, 0xbe, 0xc1, 0x50, 0xbe,
  0xc2, 0x99, 0xe4, 0xbd, 0xaa, 0x64, 0xde, 0x3d, 0xf6, 0xa4, 0xd7, 0xbd,
  0x0e, 0xad, 0xab, 0x3f, 0xd1, 0xcb, 0x33, 0x3d, 0x1c, 0x08, 0xb2, 0xbd,
  0xb7, 0x07, 0x73, 0x3e, 0x91, 0x84, 0x10, 0xbc, 0x2e, 0x93, 0x09, 0x3e,
  0xcb, 0xe9, 0x42, 0x3c, 0xcd, 0x4d, 0x18, 0x3e, 0xeb, 0x69, 0x4d, 0x3d,
  0xf5, 0x35, 0x81, 0xbd, 0x11, 0x44, 0x0e, 0x3e, 0x60, 0xf3, 0x6d, 0x3c,
  0x2c, 0x4a, 0xad, 0xbe, 0x11, 0x27, 0xe0, 0xbd, 0x42, 0x2f, 0x6a, 0xbc,
  0x0a, 0xc8, 0xcf, 0x3b, 0x53, 0xff, 0x0e, 0x3f, 0xbd, 0xb4, 0xb0, 0x3d,
  0x0c, 0x37, 0x86, 0x3d, 0xc9, 0x54, 0x60, 0xbc, 0xf6, 0x6f, 0x19, 0xbe,
  0xe1, 0x5b, 0x01, 0x3f, 0x19, 0xe7, 0x56, 0x3e, 0x27, 0x6d, 0x24, 0x3e,
  0x01, 0xbc, 0xb9, 0x3d, 0x9e, 0x09, 0x5f, 0x3e, 0xa1, 0x4e, 0x5c, 0xbd,
  0xb2, 0xb8, 0x3e, 0xba, 0xb6, 0x1d, 0x34, 0xbe, 0x4b, 0x01, 0x90, 0xbc,
  0x8c, 0x72, 0xce, 0xbd, 0xfa, 0x37, 0x33, 0x3e, 0x8c, 0xe6, 0x14, 0x3f,
  0x6b, 0xef, 0xbf, 0x3c, 0x33, 0x5f, 0xcc, 0xbd, 0x0d, 0x18, 0x86, 0xbd,
  0xbe, 0x34, 0x15, 0xbe, 0x65, 0x14, 0x64, 0x3e, 0x35, 0x75, 0xa9, 0x3e,
  0x68, 0xe4, 0xb9, 0xbd, 0xdc, 0x47, 0x5c, 0xbe, 0xf9, 0x46, 0xa3, 0xbe,
  0xd9, 0xb4, 0x13, 0x3e, 0x38, 0xb1, 0xe2, 0xbe, 0x7d, 0x06, 0x1b, 0xbe,
  0xa8, 0xd3, 0x1d, 0x3d, 0x22, 0xf2, 0xc2, 0xbc, 0x33, 0xe8, 0x2e, 0xbd,
  0xd1, 0x47, 0xc0, 0x3e, 0x26, 0x1b, 0xf4, 0xbd, 0xb3, 0x99, 0xc5, 0xbc,
  0x5c, 0x01, 0x83, 0xbe, 0x43, 0x8c, 0xce, 0xbb, 0x3d, 0x2a, 0x8b, 0xbd,
  0x58, 0xfd, 0x18, 0xbe, 0x5d, 0x9e, 0xcd, 0xbe, 0x60, 0x92, 0x27, 0xbe,
  0xd2, 0xfd, 0x2d, 0x3e, 0x92, 0x9a, 0x4b, 0xbe, 0x22, 0x24, 0x3b, 0x3e,
  0x0a, 0x1b, 0xcc, 0x3d, 0xdb, 0x2e, 0x80, 0x3d, 0x90, 0xdb, 0x3f, 0xbd,
  0xe9, 0x6d, 0xf6, 0x3d, 0x35, 0xeb, 0x03, 0xbe, 0xfd, 0x57, 0x25, 0x3d,
  0xde, 0x74, 0x18, 0xbe, 0x65, 0x83, 0xd2, 0x3d, 0x83, 0x84, 0x76, 0x3d,
  0x96, 0xa1, 0x91, 0xbe, 0xf4, 0x0b, 0x01, 0xbf, 0xa5, 0x70, 0x1b, 0xbe,
  0xe0, 0x5b, 0xfc, 0x3b, 0xfa, 0xfd, 0xf1, 0xbd, 0xe3, 0x0f, 0x00, 0xbe,
  0x65, 0x87, 0xa4, 0xbd, 0x10, 0x51, 0xa9, 0x3d, 0x6c, 0x38, 0x80, 0x3e,
  0xe7, 0xf7, 0x12, 0x3c, 0x80, 0x8d, 0x4a, 0xbd, 0x41, 0x9a, 0xe6, 0xbe,
  0x46, 0x05, 0x98, 0x3d, 0x47, 0x2d, 0x20, 0xbe, 0x08, 0x83, 0x16, 0x3e,
  0x04, 0xe6, 0xa8, 0x3d, 0x13, 0x63, 0xb0, 0xbe, 0x4a, 0xd4, 0x48, 0xbe,
  0x2d, 0x15, 0x2e, 0xbe, 0x7f, 0xe0, 0x96, 0x3d, 0x33, 0x3d, 0x40, 0x3e,
  0x9e, 0x06, 0x40, 0xbe, 0x2e, 0x14, 0x3b, 0xbe, 0xb7, 0xee, 0x48, 0x3d,
  0x7b, 0xab, 0x95, 0x3d, 0xa4, 0xcb, 0x59, 0x3d, 0xd3, 0x80, 0x26, 0x3b,
  0xd0, 0xa0, 0xb9, 0xbe, 0x73, 0x43, 0xeb, 0x3c, 0x7c, 0xb2, 0x05, 0xbd,
  0x9b, 0xe6, 0xe4, 0xbb, 0xa2, 0x02, 0xf2, 0x3d, 0x8e, 0x0c, 0x97, 0xbe,
  0x4d, 0x68, 0x94, 0xbe, 0x21, 0x68, 0xb9, 0xbd, 0x38, 0xac, 0xdc, 0x3d,
  0x07, 0x7f, 0x57, 0x3e, 0xc9, 0x98, 0xff, 0xbd, 0xad, 0x83, 0x36, 0xbd,
  0x6d, 0x9d, 0xba, 0x3c, 0x17, 0x49, 0xf0, 0xbc, 0xdf, 0x28, 0x72, 0xbb,
  0x95, 0xef, 0xa3, 0x3e, 0x28, 0x4d, 0x6a, 0x3b, 0xf1, 0xac, 0xa3, 0x3d,
  0xfc, 0xe8, 0x75, 0x3d, 0x27, 0x67, 0x85, 0x3d, 0x46, 0x71, 0xea, 0x3c,
  0x6f, 0xf6, 0x05, 0xbe, 0xdb, 0x56, 0x18, 0xbe, 0x86, 0x29, 0x39, 0xbe,
  0x52, 0xd2, 0x70, 0x3d, 0xaf, 0xde, 0x5f, 0x3e, 0xc8, 0xd8, 0x32, 0xbe,
  0x97, 0x78, 0x1f, 0x3e, 0xf5, 0xa6, 0x8e, 0x3c, 0xb8, 0xfb, 0x6a, 0x3e,
  0x97, 0xc6, 0xf4, 0x3c, 0xcd, 0x52, 0xe2, 0x3e, 0x3c, 0xe5, 0x8e, 0xbc,
  0xbf, 0x68, 0xa8, 0xbc, 0x0e, 0x70, 0x88, 0x3d, 0x31, 0x7f, 0xc8, 0xbc,
  0x0b, 0x23, 0x86, 0x3d, 0x5b, 0xdd, 0x88, 0xbe, 0xe0, 0xa5, 0x8c, 0xbe,
  0xc2, 0x6b, 0x38, 0xbe, 0x69, 0xd3, 0x79, 0xbc, 0x02, 0xcb, 0xed, 0x3d,
  0x74, 0xe6, 0xd7, 0xbd, 0x9f, 0xc8, 0x0a, 0x3e, 0x49, 0x2b, 0xeb, 0x3c,
  0xea, 0x36, 0xab, 0x3d, 0x24, 0xc4, 0xa2, 0xbd, 0xda, 0xb6, 0x59, 0x3e,
  0x1c, 0x72, 0xad, 0xbc, 0x4f, 0x35, 0xc7, 0x3b, 0x7a, 0xad, 0x42, 0xbe,
  0x4f, 0xe2, 0x58, 0x3e, 0xb0, 0x51, 0x0e, 0xbb, 0x6a, 0x79, 0xd8, 0xbe,
  0x0e, 0x8a, 0x91, 0xbe, 0x10, 0x4a, 0xbb, 0xbb, 0xab, 0xee, 0x3a, 0xbd,
  0x5d, 0x32, 0xc2, 0xbc, 0x75, 0xc0, 0x93, 0xbc, 0x82, 0x1e, 0x82, 0x3c,
  0xe6, 0x7c, 0x1e, 0x3d, 0xbe, 0x2d, 0x61, 0x3e, 0x84, 0x71, 0x44, 0xbc,
  0xaf, 0x3c, 0x7a, 0x3d, 0xc1, 0xfd, 0x28, 0x3e, 0xf8, 0x26, 0x91, 0xb9,
  0x6e, 0xc5, 0x21, 0x3c, 0xe6, 0x42, 0x14, 0x3d, 0x76, 0xfe, 0x29, 0x3b,
  0x8f, 0x2a, 0x9d, 0xbd, 0x2d, 0xd6, 0x30, 0xbd, 0x14, 0xee, 0x79, 0x3d,
  0x8e, 0xdb, 0x37, 0xbe, 0x3d, 0xcb, 0x48, 0xbd, 0xe1, 0x5d, 0x5c, 0xbe,
  0x50, 0xf2, 0xc6, 0xbc, 0xef, 0xfc, 0x2c, 0xbd, 0xfa, 0x40, 0x22, 0x3e,
  0x94, 0xe5, 0x65, 0xbe, 0x10, 0x8a, 0x4a, 0xbe, 0xfc, 0x8f, 0x88, 0xbe,
  0xd6, 0x5c, 0x26, 0xbe, 0x57, 0x29, 0x70, 0xbd, 0x1b, 0x16, 0x37, 0xbe,
  0x2d, 0x2b, 0x72, 0xbe, 0x10, 0xc0, 0x57, 0xbe, 0xb3, 0x2a, 0x68, 0xbd,
  0x23, 0xe8, 0x8a, 0xbd, 0x23, 0x7b, 0x56, 0xbe, 0x9a, 0xc5, 0xc2, 0x3d,
  0xe3, 0x26, 0x8a, 0xbd, 0x95, 0xea, 0xf8, 0x3d, 0x82, 0x03, 0x98, 0xbd,
  0x36, 0xc2, 0x61, 0xbe, 0x37, 0xf3, 0x2c, 0xbe, 0x14, 0xb1, 0x17, 0xbc,
  0x8c, 0xce, 0x7f, 0x3d, 0xfc, 0xc8, 0x5e, 0x3d, 0x38, 0x11, 0xab, 0x3d,
  0x6e, 0x94, 0x64, 0xbe, 0xbd, 0xce, 0x61, 0xbe, 0x80, 0x74, 0x54, 0xbe,
  0x2c, 0x5d, 0xf8, 0x3c, 0x90, 0xcb, 0xb0, 0x3d, 0x44, 0x97, 0x23, 0xbe,
  0x92, 0xbc, 0xd7, 0x3d, 0xea, 0x22, 0x3d, 0xbe, 0x16, 0xfa, 0x2d, 0xbe,
  0x49, 0x2a, 0xdc, 0x3d, 0x06, 0x6e, 0x54, 0xbe, 0xc8, 0xe0, 0x95, 0xbd,
  0xb9, 0x22, 0xe9, 0xbc, 0x7e, 0x86, 0x2c, 0x3d, 0x61, 0xe2, 0x9b, 0x3d,
  0x9c, 0x25, 0x35, 0xbe, 0x89, 0xa0, 0x03, 0xbe, 0x18, 0x62, 0x4d, 0xbe,
  0x52, 0x04, 0x5b, 0xbd, 0xf4, 0x46, 0x0c, 0xbe, 0x99, 0x73, 0x99, 0x3d,
  0x39, 0x13, 0xf8, 0x3d, 0xc7, 0xe6, 0xe4, 0xbc, 0x6b, 0x75, 0xd3, 0xbd,
  0x88, 0x8b, 0xfd, 0xbd, 0x26, 0xe4, 0x85, 0x3d, 0xda, 0x5d, 0x33, 0x3e,
  0xdb, 0x80, 0x94, 0xbc, 0x4a, 0x9d, 0x23, 0xbe, 0x6a, 0x57, 0x98, 0xbd,
  0x05, 0x30, 0x7b, 0xbe, 0x75, 0x25, 0x93, 0x3d, 0xe6, 0xb1, 0x28, 0x3e,
  0x2c, 0x82, 0x64, 0xbd, 0x96, 0xd5, 0xe1, 0x3d, 0x85, 0x48, 0x9f, 0xbd,
  0xc3, 0xa9, 0xd2, 0x3d, 0xb8, 0x8b, 0x23, 0xbe, 0x91, 0xf6, 0x11, 0x3e,
  0xa7, 0xa6, 0x74, 0xbe, 0x37, 0xc5, 0x88, 0xbe, 0x91, 0x8d, 0x48, 0xbe,
  0x1f, 0x39, 0xd5, 0x3d, 0x88, 0xcb, 0x90, 0xbe, 0xe6, 0x7b, 0x23, 0xbe,
  0x34, 0x48, 0xb6, 0xbd, 0x52, 0xb4, 0xc8, 0xbd, 0x18, 0x23, 0x67, 0xbe,
  0x40, 0x1c, 0x8d, 0xbd, 0xc0, 0xaf, 0x80, 0xbe, 0x07, 0x11, 0x6e, 0x3c,
  0x9a, 0x67, 0x93, 0xbd, 0x78, 0x78, 0xa1, 0x3d, 0xc7, 0x1e, 0x1f, 0xbd,
  0x35, 0xd2, 0x10, 0xbe, 0xfc, 0x73, 0x4f, 0x3d, 0x76, 0x17, 0x37, 0x3c,
  0x90, 0xb1, 0x82, 0xbe, 0xfd, 0x4d, 0x45, 0xbe, 0xb5, 0xbb, 0x1b, 0xbe,
  0x10, 0xf9, 0x77, 0xbe, 0xbb, 0x56, 0x2b, 0xbe, 0xf0, 0x84, 0x49, 0x3c,
  0x5a, 0xb6, 0x21, 0x3d, 0x66, 0xdb, 0x09, 0x3d, 0x1f, 0x46, 0xd1, 0x3c,
  0x22, 0x83, 0xf5, 0xba, 0x2e, 0x2c, 0x09, 0xbe, 0xd9, 0x3d, 0xd0, 0xbd,
  0xf1, 0x60, 0x16, 0x3d, 0x8c, 0x12, 0x35, 0xbd, 0xef, 0xd3, 0x43, 0x3c,
  0xc4, 0xe9, 0x97, 0xbc, 0x6d, 0x74, 0x4d, 0xbe, 0x25, 0x77, 0x19, 0x3d,
  0x2d, 0xd3, 0x9c, 0xbe, 0xfb, 0xaf, 0x82, 0x3d, 0x72, 0x7a, 0x78, 0xbe,
  0xa5, 0xd3, 0x2b, 0x3d, 0xf4, 0x8c, 0x3a, 0xbe, 0x43, 0xd8, 0x2a, 0xbd,
  0x0e, 0xf8, 0x9b, 0xbe, 0x36, 0x0f, 0x51, 0xbe, 0x32, 0xe1, 0xf4, 0xbd,
  0x4d, 0x7c, 0x8e, 0xbd, 0x89, 0x54, 0xee, 0xbd, 0xa5, 0x24, 0x59, 0xbd,
  0x28, 0xc1, 0x43, 0xbf, 0xe4, 0x03, 0xff, 0xbd, 0xa4, 0x8c, 0x1d, 0xbe,
  0xb1, 0xb7, 0x2a, 0xbe, 0xf2, 0xa6, 0xd5, 0xbe, 0xa3, 0x99, 0xf3, 0xbc,
  0xb0, 0x29, 0x5d, 0xbe, 0xee, 0x07, 0x52, 0xbe, 0xde, 0x03, 0x3f, 0xbe,
  0x73, 0x47, 0xb5, 0xbd, 0x03, 0xc5, 0xa3, 0xbc, 0x7b, 0xdd, 0x8b, 0xbd,
  0xff, 0x15, 0x17, 0xbe, 0x81, 0x34, 0x1a, 0xbd, 0xfd, 0x99, 0x17, 0x3d,
  0x50, 0x06, 0x4c, 0xbd, 0xae, 0x20, 0x26, 0xbe, 0x10, 0xfb, 0x1b, 0x3c,
  0x1f, 0xff, 0xce, 0xbc, 0xc5, 0xa5, 0x6d, 0xbe, 0xf0, 0xe0, 0xab, 0xbe,
  0x18, 0x7b, 0x8d, 0xbe, 0x77, 0xa6, 0x82, 0xbd, 0x53, 0x22, 0x4e, 0xbe,
  0x3c, 0xb3, 0x93, 0xbe, 0x3b, 0x0f, 0x26, 0xbd, 0xd8, 0x0a, 0x86, 0xbc,
  0x76, 0x36, 0x8c, 0xbc, 0xc7, 0xfc, 0x50, 0xbe, 0x04, 0xdd, 0x34, 0xbe,
  0x0e, 0x31, 0xec, 0xbd, 0x03, 0xf0, 0x77, 0xbd, 0x13, 0x21, 0xfc, 0xbe,
  0xb9, 0xad, 0x86, 0x3d, 0x85, 0x77, 0x07, 0xbe, 0x4c, 0x2d, 0xa3, 0xbd,
  0xfb, 0x48, 0xc2, 0xbe, 0xfe, 0x74, 0xb6, 0xbd, 0x28, 0x35, 0xb6, 0xbd,
  0x65, 0x15, 0x46, 0x3c, 0xa4, 0x29, 0x24, 0xbe, 0x4c, 0x59, 0xf3, 0x3b,
  0x2d, 0xb0, 0x85, 0xbc, 0xa0, 0xfa, 0x86, 0xbd, 0xb8, 0x11, 0x0e, 0xbe,
  0x98, 0xf1, 0x99, 0xbd, 0x53, 0xb6, 0xfe, 0xbd, 0xed, 0x3b, 0x22, 0xbd,
  0xbb, 0xc5, 0x0d, 0xbf, 0xbf, 0xcd, 0x2b, 0xbe, 0xec, 0xbb, 0xb9, 0xbd,
  0xfc, 0xec, 0x4a, 0xbd, 0xe0, 0x23, 0x9e, 0xbe, 0x87, 0x48, 0x01, 0xbe,
  0xa4, 0x56, 0xa1, 0xbd, 0x6d, 0xd0, 0xc2, 0xbd, 0x20, 0xe3, 0x9a, 0xbe,
  0x5c, 0x7c, 0x90, 0xbe, 0x7a, 0x61, 0x00, 0xbe, 0x14, 0xe1, 0x71, 0x3d,
  0x99, 0x65, 0x2c, 0xbe, 0x24, 0x66, 0x99, 0xbe, 0x00, 0x01, 0xa5, 0xbe,
  0x5d, 0x8b, 0x66, 0xbe, 0xcf, 0x1d, 0x2c, 0x3c, 0xca, 0x04, 0x05, 0x3f,
  0x3b, 0x95, 0x04, 0xbd, 0x5f, 0x15, 0xb8, 0x3d, 0x02, 0x95, 0x83, 0x3b,
  0xa6, 0xc1, 0xdc, 0x3e, 0xf6, 0x3c, 0xae, 0x3e, 0x79, 0x98, 0x7a, 0xbe,
  0xc4, 0x0c, 0x20, 0x3d, 0x0f, 0x72, 0xc2, 0x3d, 0xbf, 0x7b, 0x3a, 0xbd,
  0x55, 0xd9, 0xac, 0xbd, 0xda, 0xf2, 0x07, 0xbd, 0x74, 0x81, 0x34, 0xbe,
  0x4b, 0x35, 0x00, 0x3d, 0x29, 0x6c, 0x84, 0xbe, 0xaa, 0x7a, 0xbe, 0xbc,
  0xea, 0x9f, 0x74, 0x3e, 0x39, 0x38, 0x73, 0x3d, 0xf8, 0x16, 0x1f, 0xbd,
  0x70, 0xea, 0x04, 0x3d, 0x4d, 0xf4, 0xbe, 0x3e, 0x8e, 0x1d, 0x9d, 0x3e,
  0x58, 0x3b, 0xc6, 0xbd, 0xd5, 0xe8, 0x73, 0x3d, 0x41, 0x44, 0x4a, 0x3e,
  0xd7, 0x03, 0xe7, 0xbc, 0x4b, 0xde, 0x88, 0xbd, 0x46, 0x9a, 0x84, 0x3d,
  0x15, 0x9d, 0x92, 0xbd, 0x65, 0x49, 0x86, 0x3d, 0x95, 0xf2, 0x24, 0xbe,
  0x4e, 0x26, 0xe3, 0xbb, 0x6b, 0xd5, 0x6a, 0xbd, 0xb5, 0x44, 0x94, 0xbd,
  0x81, 0xad, 0xad, 0x3d, 0x2f, 0xfc, 0xf8, 0x3c, 0x08, 0xb5, 0x13, 0xbc,
  0x76, 0xd3, 0xb7, 0x3e, 0xf5, 0x55, 0xc9, 0x3d, 0x0f, 0xed, 0xfe, 0xbd,
  0x00, 0x3e, 0x29, 0x3e, 0x9d, 0x99, 0x49, 0x3e, 0x74, 0xe9, 0xe0, 0xbd,
  0x49, 0x1b, 0x13, 0xbc, 0x62, 0xfd, 0xff, 0xff, 0x10, 0x00, 0x00, 0x00,
  0x07, 0x00, 0x00, 0x00, 0x14, 0x00, 0x00, 0x00, 0x2c, 0x00, 0x00, 0x00,
  0x02, 0x00, 0x00, 0x00, 0x10, 0x00, 0x00, 0x00, 0x70, 0x00, 0x00, 0x00,
  0x17, 0x00, 0x00, 0x00, 0x73, 0x65, 0x71, 0x75, 0x65, 0x6e, 0x74, 0x69,
  0x61, 0x6c, 0x2f, 0x64, 0x65, 0x6e, 0x73, 0x65, 0x2f, 0x4d, 0x61, 0x74,
  0x4d, 0x75, 0x6c, 0x00, 0xcc, 0xfc, 0xff, 0xff, 0xd6, 0xfd, 0xff, 0xff,
  0x04, 0x00, 0x00, 0x00, 0x08, 0x00, 0x00, 0x00, 0xff, 0xff, 0xff, 0xff,
  0x70, 0x00, 0x00, 0x00, 0x00, 0x00, 0x0e, 0x00, 0x18, 0x00, 0x08, 0x00,
  0x07, 0x00, 0x0c, 0x00, 0x10, 0x00, 0x14, 0x00, 0x0e, 0x00, 0x00, 0x00,
  0x00, 0x00, 0x00, 0x02, 0x10, 0x00, 0x00, 0x00, 0x06, 0x00, 0x00, 0x00,
  0x10, 0x00, 0x00, 0x00, 0x2c, 0x00, 0x00, 0x00, 0x01, 0x00, 0x00, 0x00,
  0x02, 0x00, 0x00, 0x00, 0x18, 0x00, 0x00, 0x00, 0x73, 0x65, 0x71, 0x75,
  0x65, 0x6e, 0x74, 0x69, 0x61, 0x6c, 0x2f, 0x66, 0x6c, 0x61, 0x74, 0x74,
  0x65, 0x6e, 0x2f, 0x43, 0x6f, 0x6e, 0x73, 0x74, 0x00, 0x00, 0x00, 0x00,
  0x34, 0xfd, 0xff, 0xff, 0x3e, 0xfe, 0xff, 0xff, 0x04, 0x00, 0x00, 0x00,
  0x10, 0x00, 0x00, 0x00, 0x79, 0x76, 0x33, 0xbf, 0x3d, 0x89, 0xab, 0xc0,
  0x99, 0x43, 0x15, 0xbf, 0xe8, 0x6b, 0x2b, 0x40, 0x26, 0xfe, 0xff, 0xff,
  0x10, 0x00, 0x00, 0x00, 0x05, 0x00, 0x00, 0x00, 0x10, 0x00, 0x00, 0x00,
  0x44, 0x00, 0x00, 0x00, 0x01, 0x00, 0x00, 0x00, 0x04, 0x00, 0x00, 0x00,
  0x32, 0x00, 0x00, 0x00, 0x73, 0x65, 0x71, 0x75, 0x65, 0x6e, 0x74, 0x69,
  0x61, 0x6c, 0x2f, 0x64, 0x65, 0x6e, 0x73, 0x65, 0x5f, 0x31, 0x2f, 0x42,
  0x69, 0x61, 0x73, 0x41, 0x64, 0x64, 0x2f, 0x52, 0x65, 0x61, 0x64, 0x56,
  0x61, 0x72, 0x69, 0x61, 0x62, 0x6c, 0x65, 0x4f, 0x70, 0x2f, 0x72, 0x65,
  0x73, 0x6f, 0x75, 0x72, 0x63, 0x65, 0x00, 0x00, 0xa8, 0xfd, 0xff, 0xff,
  0xb2, 0xfe, 0xff, 0xff, 0x04, 0x00, 0x00, 0x00, 0x40, 0x00, 0x00, 0x00,
  0xa1, 0xc6, 0x9d, 0xbe, 0x5c, 0x97, 0x05, 0xc0, 0x41, 0xb8, 0xe5, 0xbe,
  0x23, 0x73, 0xe7, 0xbf, 0x37, 0xf6, 0x8f, 0xbf, 0x5f, 0x0b, 0x34, 0x40,
  0x95, 0xfc, 0x84, 0xbf, 0xe8, 0xa1, 0xc9, 0xbe, 0x63, 0xd7, 0x86, 0x3f,
  0x19, 0x1e, 0xf4, 0xbe, 0x3f, 0xbe, 0xb3, 0xbe, 0xe2, 0x33, 0xf7, 0x3f,
  0xac, 0xa9, 0x79, 0x40, 0x21, 0x1f, 0x57, 0x40, 0x40, 0xcf, 0x7d, 0xbe,
  0x1e, 0x71, 0x76, 0xbf, 0xca, 0xfe, 0xff, 0xff, 0x10, 0x00, 0x00, 0x00,
  0x04, 0x00, 0x00, 0x00, 0x10, 0x00, 0x00, 0x00, 0x44, 0x00, 0x00, 0x00,
  0x01, 0x00, 0x00, 0x00, 0x10, 0x00, 0x00, 0x00, 0x30, 0x00, 0x00, 0x00,
  0x73, 0x65, 0x71, 0x75, 0x65, 0x6e, 0x74, 0x69, 0x61, 0x6c, 0x2f, 0x64,
  0x65, 0x6e, 0x73, 0x65, 0x2f, 0x42, 0x69, 0x61, 0x73, 0x41, 0x64, 0x64,
  0x2f, 0x52, 0x65, 0x61, 0x64, 0x56, 0x61, 0x72, 0x69, 0x61, 0x62, 0x6c,
  0x65, 0x4f, 0x70, 0x2f, 0x72, 0x65, 0x73, 0x6f, 0x75, 0x72, 0x63, 0x65,
  0x00, 0x00, 0x00, 0x00, 0x4c, 0xfe, 0xff, 0xff, 0x56, 0xff, 0xff, 0xff,
  0x04, 0x00, 0x00, 0x00, 0x40, 0x00, 0x00, 0x00, 0x39, 0x99, 0xe3, 0xbf,
  0x46, 0xbc, 0xd4, 0x3e, 0x3f, 0xe7, 0xb9, 0xbf, 0xa4, 0x5c, 0x27, 0xc0,
  0x3a, 0x09, 0xdb, 0xbf, 0x10, 0x1d, 0x0f, 0x3e, 0x6f, 0x4f, 0x48, 0xbe,
  0x9b, 0x27, 0x19, 0xbe, 0xcc, 0x0c, 0x4b, 0xbf, 0x3a, 0x46, 0x4a, 0x40,
  0x5a, 0x24, 0x46, 0x3f, 0x71, 0x69, 0xe7, 0xbf, 0x05, 0xb3, 0x80, 0xbe,
  0xf4, 0x36, 0x53, 0x3f, 0x3a, 0x8f, 0x1c, 0xc0, 0x30, 0x83, 0x25, 0xc0,
  0x6e, 0xff, 0xff, 0xff, 0x10, 0x00, 0x00, 0x00, 0x03, 0x00, 0x00, 0x00,
  0x10, 0x00, 0x00, 0x00, 0x48, 0x00, 0x00, 0x00, 0x01, 0x00, 0x00, 0x00,
  0x10, 0x00, 0x00, 0x00, 0x33, 0x00, 0x00, 0x00, 0x73, 0x65, 0x71, 0x75,
  0x65, 0x6e, 0x74, 0x69, 0x61, 0x6c, 0x2f, 0x63, 0x6f, 0x6e, 0x76, 0x32,
  0x64, 0x5f, 0x31, 0x2f, 0x42, 0x69, 0x61, 0x73, 0x41, 0x64, 0x64, 0x2f,
  0x52, 0x65, 0x61, 0x64, 0x56, 0x61, 0x72, 0x69, 0x61, 0x62, 0x6c, 0x65,
  0x4f, 0x70, 0x2f, 0x72, 0x65, 0x73, 0x6f, 0x75, 0x72, 0x63, 0x65, 0x00,
  0x04, 0x00, 0x06, 0x00, 0x04, 0x00, 0x00, 0x00, 0x00, 0x00, 0x06, 0x00,
  0x08, 0x00, 0x04, 0x00, 0x06, 0x00, 0x00, 0x00, 0x04, 0x00, 0x00, 0x00,
  0x20, 0x00, 0x00, 0x00, 0x07, 0xf8, 0x42, 0xc0, 0x5f, 0xe8, 0xea, 0x3d,
  0x66, 0x18, 0x3b, 0xc0, 0x4a, 0x19, 0x6f, 0xbf, 0x4b, 0xf8, 0xf6, 0xbf,
  0x53, 0x6a, 0xdd, 0x3e, 0xd0, 0xc3, 0x46, 0x3f, 0xf2, 0xc9, 0x58, 0xc0,
  0x00, 0x00, 0x0e, 0x00, 0x14, 0x00, 0x04, 0x00, 0x00, 0x00, 0x08, 0x00,
  0x0c, 0x00, 0x10, 0x00, 0x0e, 0x00, 0x00, 0x00, 0x10, 0x00, 0x00, 0x00,
  0x02, 0x00, 0x00, 0x00, 0x10, 0x00, 0x00, 0x00, 0x44, 0x00, 0x00, 0x00,
  0x01, 0x00, 0x00, 0x00, 0x08, 0x00, 0x00, 0x00, 0x31, 0x00, 0x00, 0x00,
  0x73, 0x65, 0x71, 0x75, 0x65, 0x6e, 0x74, 0x69, 0x61, 0x6c, 0x2f, 0x63,
  0x6f, 0x6e, 0x76, 0x32, 0x64, 0x2f, 0x42, 0x69, 0x61, 0x73, 0x41, 0x64,
  0x64, 0x2f, 0x52, 0x65, 0x61, 0x64, 0x56, 0x61, 0x72, 0x69, 0x61, 0x62,
  0x6c, 0x65, 0x4f, 0x70, 0x2f, 0x72, 0x65, 0x73, 0x6f, 0x75, 0x72, 0x63,
  0x65, 0x00, 0x00, 0x00, 0x90, 0xff, 0xff, 0xff, 0x14, 0x00, 0x18, 0x00,
  0x04, 0x00, 0x00, 0x00, 0x08, 0x00, 0x0c, 0x00, 0x10, 0x00, 0x00, 0x00,
  0x00, 0x00, 0x14, 0x00, 0x14, 0x00, 0x00, 0x00, 0x14, 0x00, 0x00, 0x00,
  0x01, 0x00, 0x00, 0x00, 0x20, 0x00, 0x00, 0x00, 0x44, 0x00, 0x00, 0x00,
  0x2c, 0x00, 0x00, 0x00, 0x04, 0x00, 0x00, 0x00, 0x01, 0x00, 0x00, 0x00,
  0x40, 0x00, 0x00, 0x00, 0x03, 0x00, 0x00, 0x00, 0x01, 0x00, 0x00, 0x00,
  0x0c, 0x00, 0x00, 0x00, 0x63, 0x6f, 0x6e, 0x76, 0x32, 0x64, 0x5f, 0x69,
  0x6e, 0x70, 0x75, 0x74, 0x00, 0x00, 0x00, 0x00, 0x04, 0x00, 0x00, 0x00,
  0xff, 0xff, 0xff, 0xff, 0x40, 0x00, 0x00, 0x00, 0x03, 0x00, 0x00, 0x00,
  0x01, 0x00, 0x00, 0x00, 0xfc, 0xff, 0xff, 0xff, 0x04, 0x00, 0x04, 0x00,
  0x04, 0x00, 0x00, 0x00
  // Paste the data of the char array in `src/model.cc` here
};

unsigned int model_tflite_len = 13120;// Fill the int in `src/model.cc` here
